#include "magic_wand_model_data.h"

// We need to keep the data array aligned on some architectures.
#ifdef __has_attribute
#define HAVE_ATTRIBUTE(x) __has_attribute(x)
#else
#define HAVE_ATTRIBUTE(x) 0
#endif
#if HAVE_ATTRIBUTE(aligned) || (defined(__GNUC__) && !defined(__clang__))
#define DATA_ALIGN_ATTRIBUTE __attribute__((aligned(4)))
#else
#define DATA_ALIGN_ATTRIBUTE
#endif

const unsigned char g_magic_wand_model_data[] DATA_ALIGN_ATTRIBUTE = {
  // Paste the data of the char array in `src/model.cc` here
  0x1c, 0x00, 0x00, 0x00, 0x54, 0x46, 0x4c, 0x33, 0x14, 0x00, 0x20, 0x00,
  0x04, 0x00, 0x08, 0x00, 0x0c, 0x00, 0x10, 0x00, 0x14, 0x00, 0x00, 0x00,
  0x18, 0x00, 0x1c, 0x00, 0x14, 0x00, 0x00, 0x00, 0x03, 0x00, 0x00, 0x00,
  0x18, 0x00, 0x00, 0x00, 0x2c, 0x00, 0x00, 0x00, 0xd8, 0x00, 0x00, 0x00,
  0x2c, 0x00, 0x00, 0x00, 0x80, 0x00, 0x00, 0x00, 0x78, 0x00, 0x00, 0x00,
  0x05, 0x00, 0x00, 0x00, 0x28, 0x07, 0x00, 0x00, 0x44, 0x06, 0x00, 0x00,
  0xbc, 0x03, 0x00, 0x00, 0xf8, 0x02, 0x00, 0x00, 0xac, 0x01, 0x00, 0x00,
  0x01, 0x00, 0x00, 0x00, 0xd0, 0x00, 0x00, 0x00, 0x14, 0x00, 0x00, 0x00,
  0x98, 0x32, 0x00, 0x00, 0x94, 0x32, 0x00, 0x00, 0x8c, 0x31, 0x00, 0x00,
  0xd8, 0x30, 0x00, 0x00, 0x30, 0x30, 0x00, 0x00, 0xbc, 0x2f, 0x00, 0x00,
  0x50, 0x2f, 0x00, 0x00, 0x00, 0x13, 0x00, 0x00, 0xec, 0x11, 0x00, 0x00,
  0x10, 0x10, 0x00, 0x00, 0xb4, 0x07, 0x00, 0x00, 0x6c, 0x32, 0x00, 0x00,
  0x68, 0x32, 0x00, 0x00, 0x64, 0x32, 0x00, 0x00, 0x60, 0x32, 0x00, 0x00,
  0x5c, 0x32, 0x00, 0x00, 0x58, 0x32, 0x00, 0x00, 0x54, 0x32, 0x00, 0x00,
  0x50, 0x32, 0x00, 0x00, 0x3c, 0x00, 0x00, 0x00, 0x00, 0x00, 0x00, 0x00,
  0x01, 0x00, 0x00, 0x00, 0x0c, 0x00, 0x00, 0x00, 0x08, 0x00, 0x0c, 0x00,
  0x04, 0x00, 0x08, 0x00, 0x08, 0x00, 0x00, 0x00, 0x08, 0x00, 0x00, 0x00,
  0x13, 0x00, 0x00, 0x00, 0x13, 0x00, 0x00, 0x00, 0x6d, 0x69, 0x6e, 0x5f,
  0x72, 0x75, 0x6e, 0x74, 0x69, 0x6d, 0x65, 0x5f, 0x76, 0x65, 0x72, 0x73,
  0x69, 0x6f, 0x6e, 0x00, 0xfa, 0xce, 0xff, 0xff, 0x04, 0x00, 0x00, 0x00,
  0x10, 0x00, 0x00, 0x00, 0x31, 0x2e, 0x35, 0x2e, 0x30, 0x00, 0x00, 0x00,
  0x00, 0x00, 0x00, 0x00, 0x00, 0x00, 0x00, 0x00, 0x0f, 0x00, 0x00, 0x00,
  0x4d, 0x4c, 0x49, 0x52, 0x20, 0x43, 0x6f, 0x6e, 0x76, 0x65, 0x72, 0x74,
  0x65, 0x64, 0x2e, 0x00, 0x00, 0x00, 0x0e, 0x00, 0x18, 0x00, 0x04, 0x00,
  0x08, 0x00, 0x0c, 0x00, 0x10, 0x00, 0x14, 0x00, 0x0e, 0x00, 0x00, 0x00,
  0x14, 0x00, 0x00, 0x00, 0x5c, 0x00, 0x00, 0x00, 0x60, 0x00, 0x00, 0x00,
  0x64, 0x00, 0x00, 0x00, 0x84, 0x00, 0x00, 0x00, 0x12, 0x00, 0x00, 0x00,
  0x58, 0x31, 0x00, 0x00, 0xe8, 0x30, 0x00, 0x00, 0x44, 0x30, 0x00, 0x00,
  0x9c, 0x2f, 0x00, 0x00, 0xf4, 0x2e, 0x00, 0x00, 0x94, 0x2e, 0x00, 0x00,
  0x2c, 0x2e, 0x00, 0x00, 0xd8, 0x11, 0x00, 0x00, 0xbc, 0x10, 0x00, 0x00,
  0xe0, 0x0e, 0x00, 0x00, 0x0c, 0x06, 0x00, 0x00, 0x28, 0x05, 0x00, 0x00,
  0xe8, 0x03, 0x00, 0x00, 0x3c, 0x03, 0x00, 0x00, 0x98, 0x02, 0x00, 0x00,
  0xd4, 0x01, 0x00, 0x00, 0x10, 0x01, 0x00, 0x00, 0x84, 0x00, 0x00, 0x00,
  0x01, 0x00, 0x00, 0x00, 0x00, 0x00, 0x00, 0x00, 0x01, 0x00, 0x00, 0x00,
  0x11, 0x00, 0x00, 0x00, 0x08, 0x00, 0x00, 0x00, 0x74, 0x05, 0x00, 0x00,
  0x94, 0x04, 0x00, 0x00, 0x78, 0x03, 0x00, 0x00, 0xbc, 0x02, 0x00, 0x00,
  0x30, 0x02, 0x00, 0x00, 0x50, 0x01, 0x00, 0x00, 0xa8, 0x00, 0x00, 0x00,
  0x10, 0x00, 0x00, 0x00, 0x04, 0x00, 0x00, 0x00, 0x6d, 0x61, 0x69, 0x6e,
  0x00, 0x00, 0x00, 0x00, 0x7a, 0xff, 0xff, 0xff, 0x00, 0x00, 0x00, 0x09,
  0x04, 0x00, 0x00, 0x00, 0x1c, 0x00, 0x00, 0x00, 0x10, 0x00, 0x00, 0x00,
  0x04, 0x00, 0x00, 0x00, 0xf6, 0xcf, 0xff, 0xff, 0x00, 0x00, 0x80, 0x3f,
  0x01, 0x00, 0x00, 0x00, 0x11, 0x00, 0x00, 0x00, 0x01, 0x00, 0x00, 0x00,
  0x10, 0x00, 0x00, 0x00, 0xa0, 0xfa, 0xff, 0xff, 0x19, 0x00, 0x00, 0x00,
  0x00, 0x00, 0x00, 0x19, 0x01, 0x00, 0x00, 0x00, 0x84, 0xcf, 0xff, 0xff,
  0x14, 0x00, 0x00, 0x00, 0x12, 0x00, 0x00, 0x00, 0x18, 0x00, 0x00, 0x00,
  0x30, 0x00, 0x00, 0x00, 0x20, 0x00, 0x00, 0x00, 0x02, 0x00, 0x00, 0x00,
  0x01, 0x00, 0x00, 0x00, 0x03, 0x00, 0x00, 0x00, 0x08, 0x00, 0x00, 0x00,
  0x49, 0x64, 0x65, 0x6e, 0x74, 0x69, 0x74, 0x79, 0x00, 0x00, 0x00, 0x00,
  0x02, 0x00, 0x00, 0x00, 0xff, 0xff, 0xff, 0xff, 0x03, 0x00, 0x00, 0x00,
  0x68, 0xd0, 0xff, 0xff, 0x00, 0x00, 0x0e, 0x00, 0x18, 0x00, 0x08, 0x00,
  0x0c, 0x00, 0x10, 0x00, 0x07, 0x00, 0x14, 0x00, 0x0e, 0x00, 0x00, 0x00,
  0x00, 0x00, 0x00, 0x08, 0x03, 0x00, 0x00, 0x00, 0x18, 0x00, 0x00, 0x00,
  0x0c, 0x00, 0x00, 0x00, 0x04, 0x00, 0x00, 0x00, 0x84, 0xcf, 0xff, 0xff,
  0x01, 0x00, 0x00, 0x00, 0x10, 0x00, 0x00, 0x00, 0x03, 0x00, 0x00, 0x00,
  0x0f, 0x00, 0x00, 0x00, 0x07, 0x00, 0x00, 0x00, 0x04, 0x00, 0x00, 0x00,
  0x0c, 0xd0, 0xff, 0xff, 0x14, 0x00, 0x00, 0x00, 0x11, 0x00, 0x00, 0x00,
  0x18, 0x00, 0x00, 0x00, 0x5c, 0x00, 0x00, 0x00, 0x4c, 0x00, 0x00, 0x00,
  0x02, 0x00, 0x00, 0x00, 0x01, 0x00, 0x00, 0x00, 0x03, 0x00, 0x00, 0x00,
  0x34, 0x00, 0x00, 0x00, 0x73, 0x65, 0x71, 0x75, 0x65, 0x6e, 0x74, 0x69,
  0x61, 0x6c, 0x2f, 0x64, 0x65, 0x6e, 0x73, 0x65, 0x5f, 0x31, 0x2f, 0x4d,
  0x61, 0x74, 0x4d, 0x75, 0x6c, 0x3b, 0x73, 0x65, 0x71, 0x75, 0x65, 0x6e,
  0x74, 0x69, 0x61, 0x6c, 0x2f, 0x64, 0x65, 0x6e, 0x73, 0x65, 0x5f, 0x31,
  0x2f, 0x42, 0x69, 0x61, 0x73, 0x41, 0x64, 0x64, 0x00, 0x00, 0x00, 0x00,
  0x02, 0x00, 0x00, 0x00, 0xff, 0xff, 0xff, 0xff, 0x03, 0x00, 0x00, 0x00,
  0x0c, 0xd0, 0xff, 0xff, 0xda, 0xfc, 0xff, 0xff, 0x00, 0x00, 0x00, 0x08,
  0x03, 0x00, 0x00, 0x00, 0x24, 0x00, 0x00, 0x00, 0x18, 0x00, 0x00, 0x00,
  0x0c, 0x00, 0x00, 0x00, 0x00, 0x00, 0x06, 0x00, 0x08, 0x00, 0x07, 0x00,
  0x06, 0x00, 0x00, 0x00, 0x00, 0x00, 0x00, 0x01, 0x01, 0x00, 0x00, 0x00,
  0x0f, 0x00, 0x00, 0x00, 0x03, 0x00, 0x00, 0x00, 0x0e, 0x00, 0x00, 0x00,
  0x06, 0x00, 0x00, 0x00, 0x03, 0x00, 0x00, 0x00, 0xe8, 0xfb, 0xff, 0xff,
  0x09, 0x00, 0x00, 0x00, 0x00, 0x00, 0x00, 0x09, 0x01, 0x00, 0x00, 0x00,
  0xcc, 0xd0, 0xff, 0xff, 0x14, 0x00, 0x00, 0x00, 0x10, 0x00, 0x00, 0x00,
  0x18, 0x00, 0x00, 0x00, 0x6c, 0x00, 0x00, 0x00, 0x5c, 0x00, 0x00, 0x00,
  0x02, 0x00, 0x00, 0x00, 0x01, 0x00, 0x00, 0x00, 0x10, 0x00, 0x00, 0x00,
  0x46, 0x00, 0x00, 0x00, 0x73, 0x65, 0x71, 0x75, 0x65, 0x6e, 0x74, 0x69,
  0x61, 0x6c, 0x2f, 0x64, 0x65, 0x6e, 0x73, 0x65, 0x2f, 0x4d, 0x61, 0x74,
  0x4d, 0x75, 0x6c, 0x3b, 0x73, 0x65, 0x71, 0x75, 0x65, 0x6e, 0x74, 0x69,
  0x61, 0x6c, 0x2f, 0x64, 0x65, 0x6e, 0x73, 0x65, 0x2f, 0x52, 0x65, 0x6c,
  0x75, 0x3b, 0x73, 0x65, 0x71, 0x75, 0x65, 0x6e, 0x74, 0x69, 0x61, 0x6c,
  0x2f, 0x64, 0x65, 0x6e, 0x73, 0x65, 0x2f, 0x42, 0x69, 0x61, 0x73, 0x41,
  0x64, 0x64, 0x00, 0x00, 0x02, 0x00, 0x00, 0x00, 0xff, 0xff, 0xff, 0xff,
  0x10, 0x00, 0x00, 0x00, 0xec, 0xd1, 0xff, 0xff, 0x00, 0x00, 0x0a, 0x00,
  0x10, 0x00, 0x04, 0x00, 0x08, 0x00, 0x0c, 0x00, 0x0a, 0x00, 0x00, 0x00,
  0x02, 0x00, 0x00, 0x00, 0x10, 0x00, 0x00, 0x00, 0x04, 0x00, 0x00, 0x00,
  0x01, 0x00, 0x00, 0x00, 0x0e, 0x00, 0x00, 0x00, 0x02, 0x00, 0x00, 0x00,
  0x0d, 0x00, 0x00, 0x00, 0x05, 0x00, 0x00, 0x00, 0xa8, 0xfc, 0xff, 0xff,
  0x16, 0x00, 0x00, 0x00, 0x00, 0x00, 0x00, 0x16, 0x01, 0x00, 0x00, 0x00,
  0x8c, 0xd1, 0xff, 0xff, 0x14, 0x00, 0x00, 0x00, 0x0f, 0x00, 0x00, 0x00,
  0x18, 0x00, 0x00, 0x00, 0x40, 0x00, 0x00, 0x00, 0x30, 0x00, 0x00, 0x00,
  0x02, 0x00, 0x00, 0x00, 0x01, 0x00, 0x00, 0x00, 0x70, 0x00, 0x00, 0x00,
  0x1a, 0x00, 0x00, 0x00, 0x73, 0x65, 0x71, 0x75, 0x65, 0x6e, 0x74, 0x69,
  0x61, 0x6c, 0x2f, 0x66, 0x6c, 0x61, 0x74, 0x74, 0x65, 0x6e, 0x2f, 0x52,
  0x65, 0x73, 0x68, 0x61, 0x70, 0x65, 0x00, 0x00, 0x02, 0x00, 0x00, 0x00,
  0xff, 0xff, 0xff, 0xff, 0x70, 0x00, 0x00, 0x00, 0x70, 0xd1, 0xff, 0xff,
  0x3e, 0xfe, 0xff, 0xff, 0x00, 0x00, 0x00, 0x05, 0x01, 0x00, 0x00, 0x00,
  0x38, 0x00, 0x00, 0x00, 0x2c, 0x00, 0x00, 0x00, 0x14, 0x00, 0x00, 0x00,
  0x00, 0x00, 0x0e, 0x00, 0x14, 0x00, 0x00, 0x00, 0x10, 0x00, 0x0c, 0x00,
  0x08, 0x00, 0x04, 0x00, 0x0e, 0x00, 0x00, 0x00, 0x03, 0x00, 0x00, 0x00,
  0x01, 0x00, 0x00, 0x00, 0x03, 0x00, 0x00, 0x00, 0x01, 0x00, 0x00, 0x00,
  0x01, 0x00, 0x00, 0x00, 0x0d, 0x00, 0x00, 0x00, 0x01, 0x00, 0x00, 0x00,
  0x0c, 0x00, 0x00, 0x00, 0x2c, 0xd2, 0xff, 0xff, 0x14, 0x00, 0x00, 0x00,
  0x0e, 0x00, 0x00, 0x00, 0x20, 0x00, 0x00, 0x00, 0x58, 0x00, 0x00, 0x00,
  0x40, 0x00, 0x00, 0x00, 0x04, 0x00, 0x00, 0x00, 0x01, 0x00, 0x00, 0x00,
  0x07, 0x00, 0x00, 0x00, 0x01, 0x00, 0x00, 0x00, 0x10, 0x00, 0x00, 0x00,
  0x22, 0x00, 0x00, 0x00, 0x73, 0x65, 0x71, 0x75, 0x65, 0x6e, 0x74, 0x69,
  0x61, 0x6c, 0x2f, 0x6d, 0x61, 0x78, 0x5f, 0x70, 0x6f, 0x6f, 0x6c, 0x69,
  0x6e, 0x67, 0x32, 0x64, 0x5f, 0x31, 0x2f, 0x4d, 0x61, 0x78, 0x50, 0x6f,
  0x6f, 0x6c, 0x00, 0x00, 0x04, 0x00, 0x00, 0x00, 0xff, 0xff, 0xff, 0xff,
  0x07, 0x00, 0x00, 0x00, 0x01, 0x00, 0x00, 0x00, 0x10, 0x00, 0x00, 0x00,
  0x28, 0xd2, 0xff, 0xff, 0x1a, 0xfe, 0xff, 0xff, 0x00, 0x00, 0x00, 0x01,
  0x24, 0x00, 0x00, 0x00, 0x18, 0x00, 0x00, 0x00, 0x04, 0x00, 0x00, 0x00,
  0x0c, 0xfe, 0xff, 0xff, 0x01, 0x00, 0x00, 0x00, 0x01, 0x00, 0x00, 0x00,
  0x00, 0x00, 0x00, 0x01, 0x01, 0x00, 0x00, 0x00, 0x0c, 0x00, 0x00, 0x00,
  0x03, 0x00, 0x00, 0x00, 0x0b, 0x00, 0x00, 0x00, 0x09, 0x00, 0x00, 0x00,
  0x02, 0x00, 0x00, 0x00, 0xd4, 0xd2, 0xff, 0xff, 0x14, 0x00, 0x00, 0x00,
  0x0d, 0x00, 0x00, 0x00, 0x20, 0x00, 0x00, 0x00, 0xb8, 0x00, 0x00, 0x00,
  0xa0, 0x00, 0x00, 0x00, 0x04, 0x00, 0x00, 0x00, 0x01, 0x00, 0x00, 0x00,
  0x15, 0x00, 0x00, 0x00, 0x01, 0x00, 0x00, 0x00, 0x10, 0x00, 0x00, 0x00,
  0x83, 0x00, 0x00, 0x00, 0x73, 0x65, 0x71, 0x75, 0x65, 0x6e, 0x74, 0x69,
  0x61, 0x6c, 0x2f, 0x63, 0x6f, 0x6e, 0x76, 0x32, 0x64, 0x5f, 0x31, 0x2f,
  0x52, 0x65, 0x6c, 0x75, 0x3b, 0x73, 0x65, 0x71, 0x75, 0x65, 0x6e, 0x74,
  0x69, 0x61, 0x6c, 0x2f, 0x63, 0x6f, 0x6e, 0x76, 0x32, 0x64, 0x5f, 0x31,
  0x2f, 0x42, 0x69, 0x61, 0x73, 0x41, 0x64, 0x64, 0x3b, 0x73, 0x65, 0x71,
  0x75, 0x65, 0x6e, 0x74, 0x69, 0x61, 0x6c, 0x2f, 0x63, 0x6f, 0x6e, 0x76,
  0x32, 0x64, 0x5f, 0x31, 0x2f, 0x43, 0x6f, 0x6e, 0x76, 0x32, 0x44, 0x3b,
  0x73, 0x65, 0x71, 0x75, 0x65, 0x6e, 0x74, 0x69, 0x61, 0x6c, 0x2f, 0x63,
  0x6f, 0x6e, 0x76, 0x32, 0x64, 0x5f, 0x31, 0x2f, 0x42, 0x69, 0x61, 0x73,
  0x41, 0x64, 0x64, 0x2f, 0x52, 0x65, 0x61, 0x64, 0x56, 0x61, 0x72, 0x69,
  0x61, 0x62, 0x6c, 0x65, 0x4f, 0x70, 0x2f, 0x72, 0x65, 0x73, 0x6f, 0x75,
  0x72, 0x63, 0x65, 0x00, 0x04, 0x00, 0x00, 0x00, 0xff, 0xff, 0xff, 0xff,
  0x15, 0x00, 0x00, 0x00, 0x01, 0x00, 0x00, 0x00, 0x10, 0x00, 0x00, 0x00,
  0x40, 0xd4, 0xff, 0xff, 0x00, 0x00, 0x0e, 0x00, 0x1a, 0x00, 0x08, 0x00,
  0x0c, 0x00, 0x10, 0x00, 0x07, 0x00, 0x14, 0x00, 0x0e, 0x00, 0x00, 0x00,
  0x00, 0x00, 0x00, 0x05, 0x01, 0x00, 0x00, 0x00, 0x3c, 0x00, 0x00, 0x00,
  0x30, 0x00, 0x00, 0x00, 0x14, 0x00, 0x00, 0x00, 0x00, 0x00, 0x0e, 0x00,
  0x18, 0x00, 0x17, 0x00, 0x10, 0x00, 0x0c, 0x00, 0x08, 0x00, 0x04, 0x00,
  0x0e, 0x00, 0x00, 0x00, 0x03, 0x00, 0x00, 0x00, 0x03, 0x00, 0x00, 0x00,
  0x03, 0x00, 0x00, 0x00, 0x03, 0x00, 0x00, 0x00, 0x00, 0x00, 0x00, 0x01,
  0x01, 0x00, 0x00, 0x00, 0x0b, 0x00, 0x00, 0x00, 0x01, 0x00, 0x00, 0x00,
  0x0a, 0x00, 0x00, 0x00, 0x2c, 0xff, 0xff, 0xff, 0x11, 0x00, 0x00, 0x00,
  0x00, 0x00, 0x00, 0x11, 0x01, 0x00, 0x00, 0x00, 0x10, 0xd4, 0xff, 0xff,
  0x14, 0x00, 0x00, 0x00, 0x0c, 0x00, 0x00, 0x00, 0x20, 0x00, 0x00, 0x00,
  0x58, 0x00, 0x00, 0x00, 0x40, 0x00, 0x00, 0x00, 0x04, 0x00, 0x00, 0x00,
  0x01, 0x00, 0x00, 0x00, 0x15, 0x00, 0x00, 0x00, 0x01, 0x00, 0x00, 0x00,
  0x08, 0x00, 0x00, 0x00, 0x20, 0x00, 0x00, 0x00, 0x73, 0x65, 0x71, 0x75,
  0x65, 0x6e, 0x74, 0x69, 0x61, 0x6c, 0x2f, 0x6d, 0x61, 0x78, 0x5f, 0x70,
  0x6f, 0x6f, 0x6c, 0x69, 0x6e, 0x67, 0x32, 0x64, 0x2f, 0x4d, 0x61, 0x78,
  0x50, 0x6f, 0x6f, 0x6c, 0x00, 0x00, 0x00, 0x00, 0x04, 0x00, 0x00, 0x00,
  0xff, 0xff, 0xff, 0xff, 0x15, 0x00, 0x00, 0x00, 0x01, 0x00, 0x00, 0x00,
  0x08, 0x00, 0x00, 0x00, 0x1c, 0xd5, 0xff, 0xff, 0x00, 0x00, 0x0e, 0x00,
  0x14, 0x00, 0x00, 0x00, 0x08, 0x00, 0x0c, 0x00, 0x07, 0x00, 0x10, 0x00,
  0x0e, 0x00, 0x00, 0x00, 0x00, 0x00, 0x00, 0x01, 0x30, 0x00, 0x00, 0x00,
  0x24, 0x00, 0x00, 0x00, 0x10, 0x00, 0x00, 0x00, 0x0c, 0x00, 0x10, 0x00,
  0x00, 0x00, 0x04, 0x00, 0x08, 0x00, 0x0f, 0x00, 0x0c, 0x00, 0x00, 0x00,
  0x01, 0x00, 0x00, 0x00, 0x01, 0x00, 0x00, 0x00, 0x00, 0x00, 0x00, 0x01,
  0x01, 0x00, 0x00, 0x00, 0x0a, 0x00, 0x00, 0x00, 0x03, 0x00, 0x00, 0x00,
  0x00, 0x00, 0x00, 0x00, 0x08, 0x00, 0x00, 0x00, 0x01, 0x00, 0x00, 0x00,
  0x0c, 0x00, 0x10, 0x00, 0x0b, 0x00, 0x00, 0x00, 0x0c, 0x00, 0x04, 0x00,
  0x0c, 0x00, 0x00, 0x00, 0x03, 0x00, 0x00, 0x00, 0x00, 0x00, 0x00, 0x03,
  0x01, 0x00, 0x00, 0x00, 0xf0, 0xd4, 0xff, 0xff, 0x14, 0x00, 0x00, 0x00,
  0x0b, 0x00, 0x00, 0x00, 0x20, 0x00, 0x00, 0x00, 0xb0, 0x00, 0x00, 0x00,
  0x98, 0x00, 0x00, 0x00, 0x04, 0x00, 0x00, 0x00, 0x01, 0x00, 0x00, 0x00,
  0x40, 0x00, 0x00, 0x00, 0x03, 0x00, 0x00, 0x00, 0x08, 0x00, 0x00, 0x00,
  0x7b, 0x00, 0x00, 0x00, 0x73, 0x65, 0x71, 0x75, 0x65, 0x6e, 0x74, 0x69,
  0x61, 0x6c, 0x2f, 0x63, 0x6f, 0x6e, 0x76, 0x32, 0x64, 0x2f, 0x52, 0x65,
  0x6c, 0x75, 0x3b, 0x73, 0x65, 0x71, 0x75, 0x65, 0x6e, 0x74, 0x69, 0x61,
  0x6c, 0x2f, 0x63, 0x6f, 0x6e, 0x76, 0x32, 0x64, 0x2f, 0x42, 0x69, 0x61,
  0x73, 0x41, 0x64, 0x64, 0x3b, 0x73, 0x65, 0x71, 0x75, 0x65, 0x6e, 0x74,
  0x69, 0x61, 0x6c, 0x2f, 0x63, 0x6f, 0x6e, 0x76, 0x32, 0x64, 0x2f, 0x43,
  0x6f, 0x6e, 0x76, 0x32, 0x44, 0x3b, 0x73, 0x65, 0x71, 0x75, 0x65, 0x6e,
  0x74, 0x69, 0x61, 0x6c, 0x2f, 0x63, 0x6f, 0x6e, 0x76, 0x32, 0x64, 0x2f,
  0x42, 0x69, 0x61, 0x73, 0x41, 0x64, 0x64, 0x2f, 0x52, 0x65, 0x61, 0x64,
  0x56, 0x61, 0x72, 0x69, 0x61, 0x62, 0x6c, 0x65, 0x4f, 0x70, 0x2f, 0x72,
  0x65, 0x73, 0x6f, 0x75, 0x72, 0x63, 0x65, 0x00, 0x04, 0x00, 0x00, 0x00,
  0xff, 0xff, 0xff, 0xff, 0x40, 0x00, 0x00, 0x00, 0x03, 0x00, 0x00, 0x00,
  0x08, 0x00, 0x00, 0x00, 0x44, 0xd5, 0xff, 0xff, 0x4e, 0xd6, 0xff, 0xff,
  0x04, 0x00, 0x00, 0x00, 0x00, 0x08, 0x00, 0x00, 0x45, 0xcd, 0x48, 0xbd,
  0x13, 0x94, 0x27, 0xbe, 0xaa, 0x55, 0x8c, 0xbd, 0x49, 0xf6, 0xc8, 0xbe,
  0xa3, 0x5e, 0x04, 0x3f, 0xa5, 0x2f, 0x03, 0xbe, 0x7e, 0x70, 0x00, 0x3e,
  0x19, 0x82, 0x2a, 0x3d, 0x29, 0x83, 0xc3, 0x3e, 0x62, 0xa4, 0x21, 0xbe,
  0xe1, 0x59, 0xfd, 0xbe, 0x96, 0xce, 0x86, 0xbe, 0xb5, 0x0d, 0x15, 0xbe,
  0xd6, 0x21, 0x12, 0xbe, 0x4a, 0x71, 0x99, 0xbe, 0x8c, 0x06, 0x59, 0xbc,
  0x29, 0x41, 0xf5, 0x3d, 0x5e, 0x28, 0xb2, 0xbc, 0x97, 0x44, 0x45, 0xbe,
  0xc3, 0xd6, 0xb7, 0xbd, 0x6f, 0x8d, 0x4a, 0xbe, 0xa0, 0x29, 0xe2, 0xbd,
  0x1d, 0x62, 0x9f, 0xbe, 0x89, 0xf6, 0x0f, 0xbd, 0x10, 0x12, 0x7a, 0x3d,
  0x2d, 0xd4, 0xbc, 0x3e, 0x7d, 0xe9, 0xbd, 0x3d, 0x59, 0x89, 0xf3, 0x3e,
  0x3e, 0x55, 0x3d, 0xbe, 0x81, 0x68, 0xe9, 0xbd, 0xb3, 0xfa, 0x68, 0xbe,
  0x5c, 0x88, 0xad, 0xbd, 0x8f, 0x91, 0x07, 0x3e, 0xe8, 0x2c, 0xfc, 0x3c,
  0x18, 0x8f, 0xac, 0xbd, 0x43, 0xa6, 0x79, 0xbe, 0x1c, 0x87, 0x9c, 0xbd,
  0xdf, 0xdb, 0x59, 0x3e, 0x99, 0xd2, 0x9f, 0xbc, 0x9b, 0x1c, 0x2b, 0x3e,
  0x65, 0x89, 0xb9, 0x3c, 0x61, 0xeb, 0x29, 0xbe, 0xc6, 0x50, 0x68, 0x3e,
  0x22, 0xb5, 0x9f, 0xbe, 0x7c, 0xc6, 0xcd, 0xbc, 0xa7, 0x19, 0x7f, 0x3d,
  0xc2, 0xe0, 0x39, 0xbe, 0x29, 0x17, 0x87, 0xbd, 0x5a, 0xa1, 0x25, 0x3e,
  0x11, 0x00, 0xb1, 0xbc, 0x87, 0x93, 0x1c, 0x3c, 0xc7, 0x38, 0x9d, 0xbe,
  0x8c, 0x76, 0xc2, 0xbc, 0xde, 0xde, 0x31, 0x3e, 0xf3, 0x50, 0x0c, 0xbe,
  0xa3, 0xd5, 0xcb, 0xbd, 0x08, 0x89, 0x3e, 0x3e, 0xf3, 0x91, 0x1e, 0xbd,
  0xd9, 0xe4, 0x49, 0x3e, 0xb0, 0x47, 0x74, 0xbe, 0x80, 0x2e, 0x29, 0x3e,
  0xf2, 0xe2, 0xe7, 0x3c, 0xf1, 0x5d, 0x88, 0x3e, 0x1e, 0xbf, 0xe8, 0x3c,
  0xf3, 0xe6, 0xa9, 0x3e, 0x66, 0xa6, 0x5f, 0xbe, 0xb0, 0x07, 0x99, 0xbd,
  0xc5, 0xd4, 0x7f, 0xbd, 0xc3, 0x8d, 0xec, 0x3e, 0x58, 0x4d, 0xb0, 0x3d,
  0xe2, 0xa3, 0x99, 0x3e, 0xd1, 0x15, 0x55, 0x3e, 0xb9, 0x9b, 0x51, 0x3e,
  0x95, 0xcb, 0x1c, 0xbe, 0x79, 0x60, 0x6c, 0xbe, 0xb0, 0x51, 0x6f, 0xbe,
  0x95, 0xc3, 0x5e, 0xbe, 0xa6, 0x1e, 0x8a, 0xbd, 0x37, 0x53, 0xd4, 0xbc,
  0xac, 0x01, 0x71, 0xbd, 0x9d, 0x15, 0x6e, 0x3e, 0xef, 0x65, 0x54, 0x3c,
  0x9a, 0x36, 0x05, 0xbe, 0x69, 0x6f, 0x43, 0xba, 0x50, 0x72, 0x73, 0xbe,
  0xac, 0xd5, 0x95, 0xbd, 0x04, 0x05, 0x26, 0xbe, 0x39, 0x7f, 0x18, 0xbe,
  0xa5, 0x5d, 0x23, 0x3d, 0x57, 0x98, 0xc1, 0x3e, 0x56, 0x6b, 0x02, 0x3e,
  0xfe, 0x8f, 0x17, 0x3d, 0x89, 0x6b, 0x9e, 0xbe, 0x6e, 0x10, 0xa6, 0xbd,
  0x80, 0xd3, 0xb7, 0xbe, 0x71, 0x7b, 0xd2, 0xbe, 0x82, 0x64, 0x8f, 0xbe,
  0x02, 0xbb, 0x96, 0xbe, 0x76, 0xec, 0x17, 0x3c, 0x67, 0xeb, 0x43, 0x3e,
  0x46, 0x5c, 0xb4, 0x3e, 0x7b, 0x11, 0x25, 0xbe, 0xce, 0x95, 0x50, 0xbb,
  0xed, 0x69, 0x03, 0xbd, 0xc4, 0x76, 0x21, 0x3f, 0x0c, 0x60, 0xf6, 0xbd,
  0xe6, 0x52, 0x41, 0xbd, 0xd5, 0x99, 0x29, 0xbe, 0x5e, 0x2f, 0xa7, 0xbd,
  0x74, 0x14, 0x17, 0xbe, 0x41, 0x0d, 0xc2, 0x3d, 0x8a, 0x8f, 0x14, 0xbd,
  0x33, 0xfa, 0xa0, 0x3e, 0x0d, 0x36, 0x80, 0x3c, 0x35, 0x14, 0xf1, 0xbd,
  0xe1, 0xc4, 0xc6, 0xbd, 0x6b, 0x61, 0xf4, 0xbd, 0x95, 0x14, 0x39, 0xbe,
  0xb2, 0x99, 0xa1, 0xbd, 0x6a, 0xa6, 0x14, 0xbe, 0x67, 0x79, 0xd1, 0x3d,
  0x5c, 0x00, 0x64, 0x3d, 0xce, 0xd5, 0x38, 0xbd, 0x50, 0x76, 0x94, 0x3d,
  0xf9, 0x75, 0x23, 0x3d, 0xfe, 0x19, 0x12, 0x3d, 0x3f, 0x91, 0x27, 0xbd,
  0x14, 0x2f, 0x07, 0xbf, 0x67, 0xcb, 0x52, 0xbe, 0x06, 0xc0, 0x63, 0xbe,
  0x71, 0x05, 0xdd, 0x3d, 0xe3, 0x7d, 0xd2, 0x3e, 0xb6, 0x8a, 0xfb, 0x3e,
  0x1c, 0xcf, 0x36, 0xbe, 0x72, 0x96, 0xfa, 0x3d, 0x35, 0x9e, 0xd3, 0xbd,
  0x49, 0xcc, 0x98, 0x3e, 0x5c, 0x8f, 0xb7, 0xbe, 0xfa, 0x33, 0xdc, 0x3a,
  0xa7, 0x35, 0x4c, 0xbe, 0x14, 0x2d, 0x41, 0x3e, 0xd4, 0x90, 0xa3, 0x3d,
  0x27, 0x3e, 0x7e, 0x3e, 0xd2, 0x48, 0x74, 0xbd, 0x96, 0x9f, 0x38, 0x3c,
  0x1f, 0xcf, 0x91, 0xbd, 0xa8, 0x33, 0x6d, 0xbe, 0xcd, 0xb6, 0x9e, 0xbe,
  0x71, 0x3d, 0x96, 0xbe, 0x51, 0x09, 0xc7, 0x3d, 0x87, 0xdd, 0x64, 0xbe,
  0xa7, 0x85, 0xc2, 0xbc, 0xaf, 0x38, 0x80, 0x3c, 0x7f, 0x97, 0x6d, 0x3d,
  0x51, 0x01, 0x9e, 0xbc, 0x3a, 0x9f, 0x75, 0xbe, 0x1d, 0xf9, 0xc3, 0xbe,
  0x31, 0x1e, 0x01, 0xbd, 0x70, 0xe3, 0xe1, 0xbe, 0xaf, 0x04, 0x07, 0xbe,
  0xbc, 0x3e, 0xf2, 0x3e, 0xa8, 0x4a, 0x73, 0x3e, 0x40, 0x9f, 0x73, 0xbe,
  0x3b, 0x6a, 0x41, 0xbd, 0xc7, 0x05, 0x19, 0x3e, 0x60, 0x4e, 0x0b, 0x3f,
  0xa4, 0x2c, 0x7c, 0xbe, 0x3e, 0x71, 0xca, 0xbd, 0xa5, 0x8f, 0x3d, 0x3e,
  0xa2, 0x7b, 0x20, 0x3c, 0x83, 0x08, 0xfe, 0xbd, 0x8f, 0xbe, 0x46, 0x39,
  0x82, 0x1e, 0x39, 0xbd, 0x00, 0x76, 0x38, 0x3e, 0x39, 0x72, 0x12, 0xbe,
  0x73, 0x2f, 0xad, 0xbd, 0x63, 0x12, 0x30, 0x3d, 0xff, 0x2b, 0x0c, 0xbe,
  0x65, 0x00, 0x9a, 0xbd, 0xc9, 0xf1, 0x90, 0xbc, 0xd1, 0x8d, 0x1d, 0xbe,
  0x7c, 0x50, 0x1f, 0x3c, 0xf7, 0x1c, 0x37, 0xbe, 0x29, 0x1f, 0x54, 0x3e,
  0xf5, 0xa1, 0x24, 0xbe, 0x51, 0x48, 0x38, 0xbe, 0xef, 0x68, 0xc5, 0x3a,
  0x6e, 0x7e, 0x63, 0xbd, 0x5d, 0x74, 0xf2, 0xbd, 0x5c, 0xdd, 0x35, 0x3d,
  0x30, 0x6c, 0x29, 0xbe, 0xdf, 0x62, 0xb4, 0x3e, 0xce, 0xb9, 0xfb, 0xbd,
  0x78, 0x73, 0xbf, 0xbb, 0x6c, 0x1e, 0xff, 0xbd, 0x8b, 0x10, 0x39, 0xbd,
  0x32, 0xd2, 0x6e, 0xbe, 0xc1, 0x29, 0xca, 0xbd, 0x9b, 0xb5, 0x8d, 0xbe,
  0x51, 0x5c, 0xb1, 0xbe, 0xb1, 0xe3, 0xa1, 0x3e, 0x51, 0xf3, 0xef, 0x3e,
  0xa3, 0x88, 0x78, 0xbe, 0x27, 0xfd, 0x1a, 0x3d, 0x18, 0x57, 0x2c, 0x3e,
  0xdd, 0xc3, 0x56, 0x3e, 0xf3, 0x95, 0xd1, 0xbe, 0xe3, 0x40, 0x85, 0xbf,
  0xc9, 0xc9, 0xb6, 0x3d, 0xc2, 0x2a, 0x11, 0xbe, 0x46, 0xb0, 0x0f, 0x3e,
  0xd6, 0x78, 0x46, 0x3d, 0x0c, 0x5f, 0xee, 0xbd, 0x97, 0x30, 0xb3, 0x3d,
  0x12, 0x6d, 0x06, 0xbc, 0x11, 0xf9, 0x8b, 0xbe, 0xfe, 0x7d, 0xac, 0xbe,
  0xc1, 0xce, 0x29, 0xbe, 0x5e, 0x62, 0x80, 0xbd, 0x7a, 0xf7, 0x60, 0xbd,
  0x33, 0x3e, 0x9f, 0xbd, 0x1a, 0x1a, 0x35, 0xbe, 0x44, 0xbd, 0xba, 0x3e,
  0x2f, 0x6e, 0xa9, 0x3e, 0x01, 0x85, 0x4a, 0x3d, 0x68, 0xc6, 0x5a, 0xbb,
  0x5d, 0x62, 0xea, 0x3e, 0xda, 0x39, 0x08, 0x3e, 0x06, 0x40, 0x01, 0xbc,
  0xd3, 0x55, 0xaf, 0x3e, 0xc8, 0xb4, 0xf7, 0xbc, 0x76, 0xff, 0x1a, 0xbf,
  0xfa, 0x68, 0x29, 0xbf, 0xde, 0xdc, 0xb4, 0xbe, 0xa5, 0xe6, 0xf3, 0x3e,
  0xc0, 0x41, 0x3b, 0xbe, 0x97, 0xef, 0xa0, 0xbe, 0xce, 0xcb, 0x34, 0xbe,
  0x1a, 0x41, 0xb8, 0x3d, 0x78, 0x3c, 0xd9, 0xbc, 0x07, 0x2a, 0x13, 0x3e,
  0x4e, 0xe5, 0x98, 0x3d, 0xc0, 0xd4, 0x79, 0xbe, 0x58, 0xf8, 0x53, 0xbf,
  0xb5, 0x60, 0x9a, 0x3d, 0xce, 0x7a, 0xd7, 0xbe, 0x23, 0xbe, 0x0a, 0xbe,
  0x80, 0xac, 0x6e, 0xbc, 0x98, 0xd8, 0xd9, 0x3d, 0xf2, 0x04, 0xb8, 0x3d,
  0xa9, 0x02, 0x1f, 0xbf, 0x78, 0x0e, 0x19, 0xbd, 0x5d, 0x9b, 0x52, 0x3e,
  0x64, 0x2a, 0xf1, 0xbd, 0xe1, 0x2d, 0xfb, 0xbe, 0x0c, 0x82, 0x57, 0x3d,
  0x13, 0x65, 0x28, 0x3d, 0x47, 0xf8, 0xc2, 0xbb, 0xa9, 0xbf, 0x07, 0xbe,
  0xfa, 0x3b, 0xa3, 0xbd, 0x44, 0xeb, 0x11, 0xbe, 0x32, 0xf0, 0x50, 0xbe,
  0xca, 0xf4, 0x9a, 0xbe, 0xdf, 0xdf, 0x70, 0xbe, 0x9a, 0xea, 0x8f, 0x3e,
  0x92, 0x69, 0xf4, 0xbc, 0x95, 0xe2, 0x1f, 0xbd, 0x69, 0xc5, 0x41, 0x3c,
  0x8c, 0xb2, 0x11, 0xbe, 0x0c, 0x01, 0xfa, 0x3e, 0x8d, 0x26, 0x12, 0xbe,
  0x0f, 0xb8, 0x86, 0xbe, 0xa1, 0xf6, 0x0a, 0xbd, 0xf4, 0xc5, 0x33, 0xbd,
  0x44, 0x5d, 0xba, 0x3e, 0xd3, 0x74, 0x0c, 0xbe, 0xb9, 0xc4, 0x54, 0xbe,
  0x98, 0x83, 0x6b, 0xbe, 0x09, 0xaa, 0x2e, 0xbc, 0x3b, 0xfa, 0x89, 0x3d,
  0x38, 0x82, 0xc1, 0xbd, 0x7c, 0x89, 0x3d, 0x3c, 0xbb, 0xe9, 0xb7, 0x3d,
  0x90, 0xe2, 0x49, 0xbd, 0x36, 0xab, 0x73, 0xbe, 0x62, 0xca, 0xb1, 0xbd,
  0x00, 0x51, 0x25, 0xbe, 0x5e, 0x39, 0x5c, 0x3e, 0xb6, 0x5b, 0x51, 0xbe,
  0x4d, 0x8b, 0x2d, 0x3e, 0xb2, 0x70, 0xbc, 0x3e, 0x5f, 0xcd, 0xd3, 0x3e,
  0x4c, 0x94, 0x1a, 0xbe, 0x4b, 0x17, 0x09, 0x3c, 0x2f, 0x78, 0x3d, 0x3b,
  0x13, 0x99, 0x22, 0xbe, 0x45, 0x28, 0xbb, 0xbe, 0xd1, 0xbc, 0xdc, 0xbe,
  0xff, 0xcf, 0xed, 0x3d, 0x8f, 0x65, 0x8b, 0x3d, 0xcb, 0x24, 0xa4, 0x3d,
  0xac, 0x3b, 0x43, 0xbe, 0x43, 0x26, 0x97, 0x3d, 0x6e, 0xf7, 0xdd, 0xbd,
  0x32, 0x40, 0x93, 0x3e, 0xa4, 0xc5, 0xc1, 0xbe, 0x5e, 0x11, 0xd8, 0xbc,
  0x90, 0xc4, 0x3c, 0xbe, 0xe2, 0x61, 0xe3, 0x3d, 0x0b, 0x3c, 0xc1, 0xbd,
  0xb3, 0xeb, 0x7e, 0x3e, 0x7b, 0x56, 0x40, 0x3d, 0x75, 0x7a, 0x89, 0x3e,
  0x77, 0x62, 0x6a, 0xbe, 0x75, 0x31, 0x0a, 0xbf, 0x20, 0x9b, 0x8a, 0xbe,
  0x68, 0xd2, 0xf5, 0xbd, 0xeb, 0x53, 0x85, 0xbd, 0xb3, 0x9a, 0x86, 0xbe,
  0xba, 0x14, 0x3d, 0x3d, 0x17, 0x2f, 0xc5, 0x3d, 0x47, 0x8a, 0x56, 0xbe,
  0x78, 0x67, 0xcd, 0xbe, 0x5b, 0x33, 0x51, 0xbe, 0xc3, 0x8a, 0x99, 0xbe,
  0xfb, 0x99, 0xc5, 0xbd, 0x63, 0xe8, 0x3e, 0xbe, 0xf9, 0x3c, 0xcf, 0xbd,
  0x63, 0xc0, 0x01, 0x3e, 0x1b, 0xc8, 0x7c, 0xbd, 0xb4, 0x6f, 0x9b, 0x3d,
  0xb0, 0x1d, 0xed, 0xbd, 0xd4, 0xb8, 0x5e, 0xbe, 0xdf, 0x91, 0x2c, 0xbe,
  0x87, 0x98, 0x02, 0x3e, 0x7f, 0xf5, 0xb8, 0xbd, 0x8b, 0x02, 0xaf, 0xbc,
  0x93, 0xdb, 0xc4, 0x3d, 0xf8, 0x3b, 0xeb, 0xbc, 0x07, 0xe7, 0xee, 0x3a,
  0xb8, 0xb0, 0xf0, 0xbc, 0xaf, 0x55, 0x4a, 0xbe, 0x25, 0xc5, 0x6a, 0xbe,
  0xc9, 0x52, 0xfb, 0xbd, 0x0a, 0x6a, 0xf4, 0xbc, 0xc3, 0xa8, 0x8d, 0xbc,
  0xb7, 0x49, 0x79, 0x3e, 0x5b, 0x4d, 0x93, 0x3e, 0xab, 0x14, 0xc9, 0x3d,
  0x5e, 0xde, 0xae, 0xbd, 0x34, 0xf4, 0x8b, 0x3e, 0x80, 0x2c, 0x01, 0x3e,
  0x07, 0x61, 0x51, 0xbe, 0x32, 0xec, 0x05, 0x3e, 0x3a, 0xf1, 0x2a, 0xbe,
  0xaa, 0xe7, 0x01, 0xbd, 0x12, 0xf4, 0x8d, 0x3e, 0xf2, 0xdb, 0xa4, 0x3e,
  0x89, 0xeb, 0xc2, 0xbd, 0x70, 0x47, 0xf5, 0x3d, 0xbc, 0xe4, 0x3f, 0x3e,
  0x55, 0x52, 0x18, 0x3d, 0x2b, 0x71, 0x9a, 0x3e, 0xe7, 0xae, 0xda, 0xbc,
  0xfd, 0x5c, 0x45, 0xbd, 0xa1, 0x2c, 0x5d, 0x3e, 0xf9, 0x23, 0x4b, 0xba,
  0x63, 0x5d, 0x34, 0x3e, 0x41, 0x8a, 0x6a, 0x3d, 0x83, 0x3e, 0x1f, 0x3e,
  0xb6, 0xf0, 0xd0, 0xbd, 0x64, 0x61, 0xa5, 0xbd, 0x9c, 0x8c, 0xad, 0x3d,
  0x83, 0x50, 0x03, 0xbe, 0x24, 0x6d, 0xee, 0x3b, 0xbb, 0xb5, 0x0b, 0xbd,
  0x95, 0xc6, 0x0e, 0x3d, 0xf1, 0x8b, 0x08, 0xbc, 0x6c, 0x1d, 0xc6, 0x3d,
  0x09, 0x9a, 0x04, 0xbc, 0xf4, 0x99, 0xc4, 0xbd, 0xa9, 0x26, 0x56, 0xbd,
  0xf2, 0xef, 0x15, 0xbd, 0x0b, 0x34, 0xa7, 0x3d, 0x9a, 0x92, 0xd3, 0xbc,
  0xe7, 0x8c, 0x33, 0x3e, 0x47, 0x54, 0x18, 0xbb, 0xe1, 0x41, 0xf3, 0xbd,
  0xb4, 0x23, 0x30, 0x3e, 0xb6, 0xe9, 0x75, 0x3e, 0x7e, 0x41, 0x3a, 0xbe,
  0x69, 0xb4, 0x8c, 0xbe, 0x08, 0xcf, 0x2f, 0x3c, 0x39, 0xd8, 0x80, 0xbd,
  0xd9, 0xcb, 0x27, 0xbd, 0xc5, 0xaf, 0x29, 0xbe, 0xa4, 0x69, 0xef, 0xbd,
  0xa0, 0x4a, 0x83, 0xbe, 0x0c, 0x51, 0x79, 0xbd, 0x62, 0x40, 0x80, 0xbe,
  0xc5, 0xb7, 0x72, 0x3d, 0xbd, 0xc6, 0x8b, 0xbd, 0x97, 0x9d, 0x99, 0x3e,
  0xae, 0xf8, 0x65, 0xbe, 0xe8, 0x9b, 0x9c, 0xbd, 0xc4, 0x1d, 0xcc, 0x3d,
  0x36, 0x4a, 0xb4, 0xbd, 0xfb, 0xa5, 0xd6, 0xbd, 0xa5, 0xd6, 0x92, 0x3e,
  0xc9, 0x81, 0xb4, 0x3e, 0xa0, 0xbd, 0x69, 0x3e, 0x7e, 0xad, 0x5d, 0xbe,
  0x5c, 0x4e, 0x40, 0xbd, 0x7e, 0x24, 0xf1, 0x3d, 0xd2, 0xa3, 0xe8, 0xbd,
  0x95, 0xd4, 0x1d, 0x3e, 0xab, 0x4b, 0x99, 0xbd, 0x26, 0x77, 0x92, 0xbd,
  0x13, 0x66, 0x6f, 0xbe, 0x6d, 0x01, 0xa1, 0xbc, 0x8b, 0x77, 0xb0, 0x3d,
  0x09, 0x66, 0xe7, 0x3e, 0xfb, 0xe5, 0x27, 0xbd, 0x8c, 0xa2, 0x8f, 0xbe,
  0xab, 0x34, 0x9f, 0xbe, 0x45, 0xba, 0x7b, 0xbd, 0x42, 0x3e, 0xe3, 0xbd,
  0x18, 0x76, 0x93, 0x3d, 0x15, 0xa8, 0x3e, 0x3d, 0xd8, 0x1e, 0x41, 0xbe,
  0x01, 0xe8, 0x56, 0xbd, 0xb8, 0x6e, 0x3c, 0xbe, 0xee, 0x6b, 0x24, 0x3d,
  0x7a, 0x6a, 0xe7, 0x3d, 0xcb, 0x8c, 0xed, 0xbd, 0x65, 0x1a, 0xe7, 0x3d,
  0x6c, 0x5f, 0x3a, 0x3d, 0x01, 0xda, 0x44, 0x3c, 0xa4, 0x58, 0x29, 0x3e,
  0x87, 0xbd, 0x31, 0x3e, 0x68, 0xc0, 0xa8, 0x3e, 0x1e, 0x9f, 0xa7, 0x3c,
  0x8b, 0x68, 0xf9, 0xbd, 0xaf, 0x7b, 0x88, 0x3e, 0x21, 0x29, 0x81, 0x3d,
  0x40, 0xa7, 0x11, 0x3c, 0x3c, 0x16, 0x76, 0x3d, 0x67, 0x22, 0x9d, 0x3c,
  0xad, 0x4b, 0x65, 0xbe, 0x6b, 0x84, 0xa7, 0xbe, 0xa5, 0xbd, 0x16, 0xbe,
  0xb9, 0x77, 0x12, 0xbe, 0x11, 0xff, 0xcb, 0xbe, 0x63, 0x6d, 0x32, 0xbe,
  0x4e, 0x42, 0xb8, 0xbe, 0xa7, 0x73, 0xe0, 0xbd, 0x1f, 0x88, 0xa3, 0xbe,
  0x22, 0xe5, 0x67, 0xbe, 0x74, 0xeb, 0xff, 0x39, 0xfd, 0x8b, 0xea, 0xbd,
  0x61, 0xe8, 0xa4, 0xbe, 0x22, 0x0e, 0xe2, 0xbd, 0x3c, 0xf2, 0x36, 0xbd,
  0x60, 0x20, 0xcc, 0x3d, 0xfe, 0xc1, 0x73, 0x3e, 0x0b, 0x35, 0xbb, 0xbe,
  0x6e, 0xf2, 0x1e, 0x3c, 0xf6, 0xda, 0xab, 0x3d, 0x8b, 0x62, 0xf5, 0x3d,
  0xd9, 0x06, 0x7a, 0x3d, 0x8f, 0x9d, 0x6d, 0x3e, 0xe2, 0x0b, 0x29, 0x3e,
  0x54, 0x58, 0x9c, 0x3e, 0x6a, 0x32, 0x7a, 0xbe, 0x2f, 0xfe, 0xfa, 0xbd,
  0x23, 0x7b, 0x0a, 0xbe, 0xc7, 0x84, 0x1a, 0xbe, 0xb4, 0x87, 0x3e, 0x3e,
  0xaa, 0x12, 0xfd, 0x3d, 0xa2, 0x05, 0x13, 0x3e, 0xbb, 0xfc, 0x90, 0x3e,
  0x2b, 0x6b, 0x39, 0x3e, 0xb1, 0xc6, 0x02, 0xbf, 0xf9, 0xd8, 0xad, 0x3d,
  0xcd, 0x0a, 0xc7, 0x3e, 0xc5, 0xb1, 0x05, 0x3e, 0xee, 0xaa, 0xe6, 0xbe,
  0x46, 0xe8, 0x3f, 0xbf, 0xc3, 0xe6, 0xa9, 0x3e, 0x90, 0x97, 0x1f, 0x3e,
  0xaf, 0xc3, 0x9a, 0x3e, 0xdf, 0xfb, 0x2d, 0x3e, 0x9a, 0x5f, 0xcd, 0xbd,
  0x6e, 0x65, 0x63, 0x3c, 0xbc, 0xa3, 0x56, 0x3d, 0x85, 0x95, 0x67, 0xbf,
  0xdc, 0x66, 0x01, 0xbf, 0xef, 0x63, 0x14, 0xbe, 0x5e, 0xe6, 0x36, 0x3e,
  0xd1, 0x9e, 0xc0, 0xbd, 0x00, 0x8f, 0x8f, 0xbe, 0x00, 0x5e, 0x38, 0xbd,
  0x12, 0x2d, 0x04, 0x3e, 0x20, 0xf2, 0x4a, 0xbe, 0xa3, 0x00, 0xdb, 0xbd,
  0x62, 0x9f, 0x33, 0xbe, 0xcb, 0x4a, 0x32, 0xbd, 0x13, 0x70, 0x5e, 0xbe,
  0xe5, 0xef, 0xb8, 0xbd, 0xab, 0xf0, 0xb8, 0xbe, 0x17, 0xb0, 0x40, 0xbd,
  0x84, 0x48, 0x23, 0x3e, 0x26, 0xde, 0xff, 0xff, 0x10, 0x00, 0x00, 0x00,
  0x0a, 0x00, 0x00, 0x00, 0x1c, 0x00, 0x00, 0x00, 0x38, 0x00, 0x00, 0x00,
  0x04, 0x00, 0x00, 0x00, 0x10, 0x00, 0x00, 0x00, 0x04, 0x00, 0x00, 0x00,
  0x01, 0x00, 0x00, 0x00, 0x08, 0x00, 0x00, 0x00, 0x1a, 0x00, 0x00, 0x00,
  0x73, 0x65, 0x71, 0x75, 0x65, 0x6e, 0x74, 0x69, 0x61, 0x6c, 0x2f, 0x63,
  0x6f, 0x6e, 0x76, 0x32, 0x64, 0x5f, 0x31, 0x2f, 0x43, 0x6f, 0x6e, 0x76,
  0x32, 0x44, 0x00, 0x00, 0x9c, 0xdd, 0xff, 0xff, 0xa6, 0xde, 0xff, 0xff,
  0x04, 0x00, 0x00, 0x00, 0x80, 0x01, 0x00, 0x00, 0xa0, 0x4d, 0x7c, 0xbe,
  0x0e, 0x6e, 0x6c, 0x3d, 0x1c, 0x83, 0x8b, 0x3c, 0xbb, 0xca, 0xa2, 0xbe,
  0xfe, 0xfc, 0x89, 0x3d, 0x43, 0xf8, 0x84, 0xbe, 0x47, 0x0e, 0x0b, 0x3f,
  0x40, 0x81, 0xd8, 0xbd, 0x27, 0xbd, 0x4c, 0x3e, 0xd9, 0x46, 0xf8, 0x3d,
  0xa1, 0xdf, 0xb1, 0x3d, 0x1d, 0x5e, 0xb4, 0x3d, 0x0c, 0x73, 0xb1, 0xbc,
  0x10, 0x50, 0x48, 0x3c, 0x83, 0x82, 0x3a, 0x3d, 0x8a, 0x9d, 0x4e, 0x3c,
  0x9a, 0x0f, 0x9b, 0xbe, 0xb1, 0x48, 0xb7, 0xbc, 0xb4, 0x43, 0x3e, 0x3e,
  0x69, 0x8a, 0xe7, 0xba, 0x0f, 0xeb, 0x93, 0x3d, 0x1b, 0x12, 0xcd, 0x3e,
  0x73, 0x1d, 0x79, 0x3e, 0xed, 0x0d, 0xe6, 0xbc, 0x74, 0xc3, 0xbe, 0x3e,
  0xde, 0xb3, 0xc3, 0x3d, 0x78, 0x7c, 0x8f, 0x3e, 0x5f, 0x1f, 0xc7, 0x3d,
  0x57, 0x8d, 0x01, 0x3e, 0x71, 0xcb, 0x88, 0x3d, 0xef, 0xce, 0x50, 0xbe,
  0x1f, 0xea, 0x4e, 0xbe, 0x69, 0x9e, 0xa2, 0xbd, 0xf9, 0xcc, 0x15, 0x3e,
  0x87, 0x30, 0xab, 0x3c, 0x30, 0xd3, 0x86, 0xbe, 0x0b, 0x5b, 0x43, 0x3d,
  0xd3, 0xf1, 0xa6, 0x3d, 0xea, 0x08, 0x19, 0x3c, 0x94, 0x05, 0x76, 0x3e,
  0x0e, 0xe4, 0x5a, 0x3c, 0xfb, 0xdf, 0x6a, 0x3d, 0x21, 0x0c, 0x8f, 0x3e,
  0xc8, 0x91, 0x8a, 0xba, 0xcf, 0xcb, 0x09, 0x3e, 0x64, 0x39, 0x0d, 0xbd,
  0xcc, 0x44, 0x98, 0xbd, 0x7b, 0xca, 0xd5, 0x3d, 0x7c, 0x6a, 0x64, 0x3b,
  0xfd, 0xe5, 0x86, 0x3d, 0x9c, 0x82, 0xa1, 0xbe, 0x1a, 0x10, 0x9c, 0xbd,
  0xbe, 0x49, 0x8d, 0x3e, 0x09, 0x42, 0xb6, 0xbe, 0xfd, 0x7a, 0x2e, 0x3d,
  0x8f, 0x2f, 0x94, 0x3d, 0xe8, 0x13, 0x55, 0x3d, 0x34, 0x1e, 0x5d, 0x3e,
  0x7b, 0x0d, 0x86, 0xbe, 0x98, 0xb6, 0x71, 0x3e, 0x91, 0xc3, 0x4d, 0x3d,
  0x34, 0xeb, 0xcc, 0xbb, 0xc2, 0x0d, 0xe6, 0xbd, 0x38, 0xaa, 0xf3, 0xbd,
  0x78, 0x0b, 0x65, 0x3d, 0xe8, 0xf8, 0x29, 0xbf, 0x6a, 0xb4, 0x40, 0x3e,
  0x10, 0xf8, 0x42, 0x3e, 0x7a, 0x05, 0xc0, 0x3e, 0x5d, 0xb7, 0x7b, 0xbc,
  0x40, 0x94, 0xb8, 0x3c, 0x20, 0x2d, 0xfc, 0x3e, 0xb2, 0x3e, 0x02, 0x3e,
  0xea, 0xb6, 0xaa, 0x3e, 0xa8, 0x3d, 0xc2, 0xbd, 0x6c, 0xd5, 0xb8, 0x3b,
  0x6a, 0x15, 0x42, 0x3d, 0x40, 0xc0, 0xd3, 0xbd, 0x4d, 0xb3, 0xe9, 0x3c,
  0xb4, 0x1c, 0x19, 0xbe, 0xff, 0x86, 0x30, 0xbd, 0x85, 0x4e, 0xfd, 0x3d,
  0xde, 0xe3, 0x14, 0xbe, 0xc4, 0x71, 0xef, 0x3c, 0x90, 0x18, 0x78, 0xbd,
  0x84, 0xa3, 0x51, 0xbd, 0x7a, 0x0f, 0xc6, 0xbe, 0x9b, 0x18, 0x83, 0x3d,
  0x09, 0xfe, 0xda, 0xbd, 0x2e, 0x18, 0x8b, 0x3e, 0x5d, 0x2d, 0x07, 0x3c,
  0x5d, 0xc5, 0x08, 0xbe, 0x0f, 0x65, 0x9e, 0x3c, 0xf3, 0x21, 0x94, 0xbd,
  0xb3, 0x0f, 0x18, 0x3c, 0x15, 0xf3, 0xfd, 0xbb, 0xfe, 0xdf, 0xff, 0xff,
  0x10, 0x00, 0x00, 0x00, 0x09, 0x00, 0x00, 0x00, 0x1c, 0x00, 0x00, 0x00,
  0x38, 0x00, 0x00, 0x00, 0x04, 0x00, 0x00, 0x00, 0x08, 0x00, 0x00, 0x00,
  0x04, 0x00, 0x00, 0x00, 0x03, 0x00, 0x00, 0x00, 0x01, 0x00, 0x00, 0x00,
  0x18, 0x00, 0x00, 0x00, 0x73, 0x65, 0x71, 0x75, 0x65, 0x6e, 0x74, 0x69,
  0x61, 0x6c, 0x2f, 0x63, 0x6f, 0x6e, 0x76, 0x32, 0x64, 0x2f, 0x43, 0x6f,
  0x6e, 0x76, 0x32, 0x44, 0x00, 0x00, 0x00, 0x00, 0x74, 0xdf, 0xff, 0xff,
  0x7e, 0xe0, 0xff, 0xff, 0x04, 0x00, 0x00, 0x00, 0xc0, 0x00, 0x00, 0x00,
  0x65, 0xbb, 0x0c, 0xbf, 0x7b, 0x9d, 0x80, 0xbc, 0xb9, 0xd5, 0x7c, 0xbd,
  0x5e, 0x60, 0x2c, 0x3e, 0x58, 0x56, 0x99, 0xbe, 0x87, 0x91, 0xc2, 0xbc,
  0xcf, 0x3c, 0xbd, 0xbe, 0x68, 0x4b, 0x03, 0xbe, 0x2c, 0xbd, 0xd8, 0xbe,
  0xf6, 0xb6, 0x42, 0x3e, 0x9c, 0x9f, 0xc8, 0x3d, 0xcf, 0xfd, 0x84, 0xbd,
  0x01, 0x54, 0xcc, 0xbd, 0xaa, 0x9d, 0xcd, 0xbd, 0x7a, 0xa4, 0x2d, 0x3f,
  0xf6, 0x8f, 0x95, 0xbe, 0xd9, 0x18, 0x35, 0x3d, 0x23, 0x2a, 0x84, 0xbd,
  0x18, 0xf3, 0x8f, 0xbc, 0x76, 0xf6, 0x51, 0x3e, 0x21, 0x9d, 0x98, 0x3e,
  0x3d, 0x37, 0x1d, 0xbd, 0x12, 0xf8, 0xaa, 0xbe, 0xdf, 0x98, 0xe5, 0x3e,
  0xc9, 0xb8, 0xc0, 0xbe, 0x40, 0x7c, 0x31, 0x3e, 0x4d, 0x22, 0x12, 0x3e,
  0xc2, 0x4f, 0x70, 0x3b, 0xa9, 0x7c, 0x3b, 0xbe, 0x8a, 0xc3, 0xd7, 0xbc,
  0x75, 0x6c, 0x24, 0xbf, 0x67, 0x64, 0xd1, 0x3e, 0xba, 0x97, 0x79, 0xbe,
  0xa0, 0xb4, 0x6c, 0xbd, 0x07, 0x69, 0x9d, 0xbd, 0x31, 0x07, 0x80, 0x3e,
  0x7a, 0x1d, 0x9b, 0x3e, 0xd0, 0x98, 0x93, 0xbd, 0x43, 0x5c, 0xcb, 0xbe,
  0x68, 0xaa, 0x95, 0x3e, 0x33, 0xa6, 0xd8, 0xbe, 0x0a, 0x2e, 0x14, 0x3e,
  0xc9, 0x55, 0xef, 0x3d, 0xc7, 0xbe, 0x99, 0x3c, 0x3c, 0xc1, 0xaa, 0xbd,
  0x42, 0xf8, 0xba, 0xbd, 0xb7, 0x1e, 0x39, 0xbf, 0x35, 0xfe, 0xd6, 0xbd,
  0x16, 0xe1, 0xff, 0xff, 0x10, 0x00, 0x00, 0x00, 0x08, 0x00, 0x00, 0x00,
  0x14, 0x00, 0x00, 0x00, 0x30, 0x00, 0x00, 0x00, 0x02, 0x00, 0x00, 0x00,
  0x03, 0x00, 0x00, 0x00, 0x10, 0x00, 0x00, 0x00, 0x19, 0x00, 0x00, 0x00,
  0x73, 0x65, 0x71, 0x75, 0x65, 0x6e, 0x74, 0x69, 0x61, 0x6c, 0x2f, 0x64,
  0x65, 0x6e, 0x73, 0x65, 0x5f, 0x31, 0x2f, 0x4d, 0x61, 0x74, 0x4d, 0x75,
  0x6c, 0x00, 0x00, 0x00, 0x84, 0xe0, 0xff, 0xff, 0x8e, 0xe1, 0xff, 0xff,
  0x04, 0x00, 0x00, 0x00, 0x00, 0x1c, 0x00, 0x00, 0x03, 0x7d, 0xac, 0xbd,
  0x93, 0x5f, 0x1a, 0xbd, 0x17, 0x04, 0x60, 0xbe, 0x6b, 0x55, 0x02, 0xbd,
  0xa4, 0xca, 0xbe, 0xbc, 0x18, 0xa5, 0xe3, 0xbd, 0xe6, 0x4e, 0xab, 0x3d,
  0x08, 0xac, 0xcf, 0xbd, 0x38, 0xbc, 0xaa, 0xbd, 0x4b, 0x06, 0xea, 0x3c,
  0xe1, 0x20, 0x34, 0xbe, 0x2b, 0xda, 0x6e, 0xbe, 0x81, 0xb6, 0x0e, 0xbe,
  0x13, 0xa7, 0xcd, 0x3d, 0x0c, 0x33, 0x7b, 0xbe, 0xbf, 0x89, 0x56, 0xbe,
  0xfe, 0xac, 0xc7, 0x3d, 0xda, 0xc3, 0x27, 0x3d, 0xc9, 0x23, 0xfb, 0x3d,
  0x47, 0x78, 0x22, 0xbe, 0x85, 0xdb, 0x84, 0x3d, 0x0f, 0xe1, 0x1c, 0xbe,
  0xbc, 0x73, 0xce, 0xbd, 0xf6, 0xcd, 0xc6, 0x3c, 0x39, 0xfb, 0x02, 0xbe,
  0xe7, 0xe9, 0xa1, 0x3d, 0x40, 0x7a, 0xd1, 0xbd, 0xe5, 0x2f, 0xfa, 0x3c,
  0xc7, 0xab, 0x76, 0x3c, 0xb4, 0x88, 0xae, 0xbc, 0x29, 0x4c, 0x46, 0xbe,
  0xd2, 0x1c, 0x9e, 0x3d, 0xea, 0x71, 0xcf, 0x3d, 0xbf, 0x44, 0xa9, 0xbd,
  0x38, 0xd2, 0xa6, 0x3c, 0xc1, 0x32, 0x39, 0xbe, 0x55, 0xe1, 0x30, 0x3e,
  0x64, 0xb9, 0x96, 0xbc, 0x3c, 0xea, 0xf6, 0xbd, 0x85, 0x9f, 0x44, 0xbe,
  0xdf, 0x20, 0x0b, 0xbe, 0x31, 0xff, 0x75, 0xbd, 0x21, 0x1b, 0x13, 0x3c,
  0x90, 0x60, 0xbe, 0x3d, 0x6e, 0x5e, 0x6c, 0xbe, 0x72, 0xb0, 0xb4, 0xbc,
  0xb1, 0xf9, 0x1a, 0xbe, 0x48, 0xb1, 0x67, 0xbe, 0x6a, 0xc9, 0x20, 0xbe,
  0x53, 0xd2, 0xa7, 0xbd, 0x97, 0xb4, 0x4f, 0xbe, 0x3b, 0x4d, 0x0e, 0xbe,
  0x4b, 0x16, 0x09, 0xbe, 0xbe, 0x13, 0xc4, 0x3d, 0x37, 0x03, 0x02, 0x3d,
  0x1f, 0x70, 0x53, 0x3d, 0xe9, 0xbb, 0x8b, 0x3d, 0x18, 0xe8, 0xb2, 0xbb,
  0x02, 0xf7, 0xcf, 0x3a, 0xf8, 0x44, 0x47, 0xbe, 0x18, 0x69, 0x1b, 0x3d,
  0xaa, 0x29, 0x22, 0xbe, 0xa6, 0xf0, 0x32, 0xbd, 0xad, 0x8a, 0xec, 0xbd,
  0x18, 0x6c, 0x33, 0xbe, 0x89, 0x84, 0x9b, 0x3d, 0x0f, 0x9a, 0x69, 0xbe,
  0x07, 0x01, 0x0e, 0xbe, 0x73, 0xdf, 0x52, 0xbe, 0x76, 0x56, 0x99, 0xbe,
  0x75, 0x61, 0xa6, 0x3d, 0xb2, 0x1e, 0xf7, 0x3d, 0xc5, 0x73, 0x3c, 0x3d,
  0x1b, 0xde, 0xb3, 0x3d, 0x25, 0xd9, 0xf0, 0xbd, 0x19, 0x75, 0x65, 0xbe,
  0x6b, 0x0a, 0xd9, 0xbd, 0x6b, 0xf0, 0xe3, 0xbc, 0xb8, 0xeb, 0x09, 0x3e,
  0x05, 0x6e, 0xe6, 0xbc, 0x9d, 0xc2, 0x67, 0xbe, 0x1b, 0x8f, 0x5c, 0xbd,
  0x69, 0xb2, 0xae, 0xbd, 0x63, 0x18, 0x89, 0x3d, 0xe5, 0xec, 0x8f, 0xbc,
  0xef, 0xc3, 0x7d, 0xbd, 0x9f, 0x3b, 0xdd, 0x3d, 0x7a, 0xa8, 0x86, 0xbe,
  0x3d, 0x02, 0xfc, 0xbd, 0x9a, 0x0f, 0x04, 0xbd, 0x75, 0x11, 0xcc, 0xbd,
  0xf7, 0x68, 0x56, 0xbe, 0x15, 0xb2, 0x88, 0xbd, 0x42, 0xed, 0xb6, 0xbc,
  0xfe, 0x16, 0x3c, 0xbd, 0x9c, 0xdc, 0x18, 0x3d, 0x8c, 0xa2, 0x0d, 0xbe,
  0x03, 0x3d, 0xb7, 0x3c, 0xe2, 0xe5, 0x4a, 0xbe, 0xf3, 0xe9, 0x69, 0xbe,
  0x49, 0xfc, 0x8a, 0xbe, 0x94, 0x4c, 0x86, 0xbd, 0x4e, 0x44, 0x45, 0x3d,
  0x4c, 0x62, 0x72, 0xbe, 0x60, 0x47, 0x3d, 0xbd, 0x49, 0x3a, 0x26, 0xbe,
  0x7d, 0x7e, 0x19, 0xbe, 0xef, 0x7d, 0x32, 0xbe, 0x0f, 0xb4, 0xa1, 0xbd,
  0xc0, 0x2f, 0x7c, 0xbe, 0x52, 0x4b, 0xf5, 0x3d, 0x2d, 0x7d, 0xab, 0xbd,
  0x97, 0x77, 0xb9, 0x3e, 0x71, 0xd1, 0x38, 0xbe, 0x36, 0x65, 0x97, 0x3e,
  0x2f, 0x21, 0xa4, 0x3e, 0x62, 0x67, 0x99, 0x3e, 0x45, 0x68, 0x8d, 0xbd,
  0xb5, 0x19, 0x81, 0xbe, 0xc8, 0xc4, 0x74, 0xbd, 0x2c, 0x8a, 0x7e, 0xbe,
  0x2c, 0xd3, 0x5e, 0xbd, 0xe4, 0x47, 0x11, 0xbe, 0xd3, 0x47, 0x5d, 0xbd,
  0xd6, 0x40, 0x9b, 0xbe, 0xfb, 0x2a, 0x3f, 0x3d, 0x9a, 0x04, 0x31, 0x3e,
  0xcb, 0x0b, 0xaf, 0xbd, 0x61, 0xe8, 0x8f, 0x3e, 0x47, 0xac, 0x34, 0xbe,
  0x28, 0x2d, 0x86, 0x3e, 0x39, 0x83, 0x86, 0xbd, 0xcf, 0xeb, 0xb9, 0x3e,
  0xb7, 0xe4, 0x00, 0xbe, 0xdc, 0xd8, 0x6b, 0x3e, 0x21, 0x7d, 0x3e, 0xbe,
  0xa4, 0xb7, 0x4f, 0xbe, 0xc2, 0x4e, 0xea, 0x3d, 0x77, 0xbf, 0x82, 0x3e,
  0x1b, 0xe1, 0x09, 0x3b, 0x09, 0x90, 0x96, 0xbe, 0xbc, 0xcf, 0x92, 0xbd,
  0x28, 0xe4, 0x94, 0xbe, 0x59, 0x36, 0x8b, 0x3d, 0x4a, 0x80, 0xc5, 0x3e,
  0xc2, 0x38, 0x18, 0xbe, 0x53, 0x1e, 0x36, 0x3e, 0x17, 0xaf, 0x5c, 0xbd,
  0x96, 0xdb, 0x30, 0x3e, 0x5a, 0x7a, 0xd0, 0xbd, 0xc0, 0x0a, 0xa5, 0x3e,
  0x08, 0xc8, 0x87, 0x3e, 0xc5, 0x22, 0x56, 0xbe, 0x7c, 0x75, 0x67, 0x3e,
  0x88, 0x91, 0x74, 0x3e, 0x56, 0xab, 0xc7, 0xbd, 0x40, 0xec, 0xf2, 0xbd,
  0x08, 0xfe, 0x1a, 0x3e, 0x4c, 0xe2, 0xc2, 0x3d, 0x00, 0x09, 0x98, 0x3e,
  0x87, 0x26, 0xae, 0x3e, 0x2e, 0xc7, 0x3a, 0x3e, 0xa7, 0x4d, 0x9d, 0x3e,
  0x9f, 0x18, 0xf8, 0x3c, 0x70, 0x78, 0x13, 0x3f, 0xc7, 0x19, 0x04, 0x3d,
  0x12, 0x70, 0x8f, 0x3e, 0xff, 0x6b, 0xbe, 0x3e, 0xff, 0xc4, 0x53, 0xbc,
  0x5f, 0xbd, 0xe7, 0x3e, 0x62, 0xb2, 0x3b, 0xbc, 0x74, 0x15, 0xe4, 0x3c,
  0x1b, 0x46, 0x9f, 0xbd, 0x1e, 0x7d, 0x51, 0xbe, 0x3f, 0x82, 0xee, 0x3c,
  0x6d, 0xc6, 0x3f, 0x3e, 0x23, 0x27, 0xc7, 0x3e, 0x8b, 0x09, 0x95, 0x3d,
  0xdc, 0xbd, 0xc8, 0x3e, 0xdc, 0x0d, 0x67, 0x3e, 0x4d, 0x7f, 0x8c, 0x3e,
  0xf9, 0x6c, 0xcd, 0x3c, 0x1c, 0x65, 0xb1, 0x3c, 0x9b, 0x93, 0x8d, 0xbd,
  0xf0, 0x06, 0xcc, 0xbe, 0x29, 0xf7, 0xc0, 0x3d, 0x78, 0x98, 0x6a, 0x3e,
  0x90, 0xa0, 0x89, 0x3d, 0x93, 0x80, 0x03, 0xbe, 0x9e, 0x93, 0x55, 0xbe,
  0xfc, 0xb3, 0xf0, 0x3d, 0x06, 0xde, 0x1c, 0xbd, 0x84, 0x9d, 0xdb, 0x3e,
  0x7f, 0x64, 0x41, 0x3c, 0x2f, 0xff, 0x02, 0x3f, 0x1e, 0x22, 0xde, 0xbd,
  0x6f, 0x3a, 0x85, 0x3e, 0xee, 0x8d, 0x87, 0xbc, 0x54, 0x2f, 0x70, 0x3e,
  0xaa, 0x6d, 0xe7, 0xbd, 0xa1, 0x9f, 0xd8, 0xbd, 0x1c, 0x83, 0xb0, 0xbd,
  0x0e, 0xfc, 0x41, 0x3e, 0xbb, 0xab, 0x57, 0xbc, 0x9f, 0x43, 0xc4, 0xbe,
  0x45, 0xad, 0x7a, 0xbe, 0x08, 0x47, 0x78, 0xbe, 0xa8, 0x78, 0x2f, 0xbe,
  0xd6, 0x4b, 0xa5, 0xbd, 0xb9, 0xa3, 0xe0, 0x3d, 0xe8, 0x6d, 0xf2, 0xbe,
  0xcd, 0xf0, 0xc4, 0xbd, 0x89, 0x71, 0x8c, 0x3d, 0x50, 0xfe, 0xd2, 0xbd,
  0x8a, 0xdc, 0x1a, 0x3e, 0x67, 0x97, 0x77, 0xbd, 0x90, 0x6f, 0x6d, 0xbe,
  0xa4, 0xdd, 0xc4, 0x3d, 0x20, 0x75, 0x8b, 0x3e, 0x50, 0xb2, 0x38, 0xbd,
  0x40, 0x90, 0x13, 0x3c, 0x8e, 0xbd, 0xfb, 0xbc, 0xe8, 0xb6, 0x09, 0xbe,
  0x19, 0xf2, 0x26, 0xbe, 0x89, 0x79, 0xc8, 0xbd, 0x51, 0xb1, 0x31, 0xbe,
  0x21, 0x46, 0xb4, 0xbd, 0xdd, 0x92, 0x01, 0xbe, 0x61, 0x81, 0xc5, 0xbd,
  0x99, 0x3f, 0xa0, 0x3e, 0xf6, 0x67, 0x2a, 0x3e, 0x6d, 0xf1, 0x33, 0x3e,
  0x32, 0xa0, 0x5d, 0x3e, 0xad, 0xd6, 0x15, 0x3e, 0x68, 0x04, 0x10, 0xbe,
  0x90, 0x4b, 0x5f, 0xbb, 0xda, 0x77, 0x69, 0xbd, 0xea, 0x2d, 0x49, 0x3c,
  0x51, 0x84, 0xc7, 0xbe, 0xd1, 0xef, 0xe4, 0x3e, 0xda, 0x77, 0x4c, 0x3e,
  0x51, 0x26, 0xfe, 0xbd, 0xc7, 0xb4, 0xa0, 0xbd, 0x1e, 0x98, 0x65, 0x3d,
  0xeb, 0xa6, 0x99, 0x3a, 0x0d, 0xa5, 0xca, 0xbd, 0xb8, 0xee, 0xd5, 0xbc,
  0x9d, 0xb9, 0x98, 0x3e, 0x37, 0x3c, 0x1f, 0xbe, 0x0b, 0x66, 0x16, 0xbe,
  0x8f, 0x59, 0xaf, 0xbd, 0x01, 0x08, 0x33, 0xbd, 0x53, 0x70, 0x9d, 0x3b,
  0x4f, 0xfb, 0x47, 0xbe, 0xdb, 0xcb, 0x06, 0xbe, 0x7c, 0xd0, 0x8c, 0xbe,
  0x62, 0x06, 0x95, 0xbd, 0xb7, 0xc4, 0x66, 0xbe, 0x18, 0x60, 0xa5, 0xbd,
  0x4d, 0x71, 0x27, 0x3e, 0x41, 0x83, 0x09, 0xbd, 0x3f, 0xe7, 0xb1, 0xbd,
  0xbe, 0x0f, 0x8c, 0xbe, 0x1c, 0x2f, 0x08, 0xbe, 0x14, 0x6a, 0x17, 0xbe,
  0xad, 0x32, 0x85, 0xbe, 0x7e, 0x3c, 0x31, 0xbe, 0xaf, 0x71, 0x9e, 0xbd,
  0xbe, 0x59, 0x7a, 0xbe, 0x47, 0xbb, 0xea, 0xbd, 0x25, 0x35, 0x47, 0xbd,
  0x88, 0x9b, 0x30, 0xbe, 0x59, 0xc7, 0xbb, 0xbc, 0xe4, 0x62, 0xdd, 0xbe,
  0xf9, 0xff, 0x07, 0xbe, 0xe7, 0xcd, 0x49, 0x3e, 0x95, 0x9c, 0xd1, 0xbe,
  0xf6, 0xc9, 0x7b, 0xbe, 0x78, 0x8e, 0x3f, 0xbe, 0x8e, 0xf8, 0x36, 0xbe,
  0xf3, 0xfb, 0x27, 0xbe, 0x4b, 0x92, 0xed, 0xbe, 0x18, 0xfd, 0x2e, 0xbe,
  0xd1, 0xd3, 0xd7, 0xbd, 0x15, 0xf7, 0xb9, 0xbc, 0x62, 0x5a, 0x89, 0xbc,
  0x00, 0x9f, 0xe9, 0xbd, 0xbd, 0xe6, 0x40, 0xbd, 0x00, 0x80, 0x0c, 0x3e,
  0xb2, 0xbd, 0x5c, 0xbd, 0x58, 0xff, 0xc5, 0x3d, 0x5e, 0x2f, 0x71, 0x3d,
  0xb7, 0xf0, 0x71, 0xbe, 0x44, 0xce, 0x04, 0xbe, 0x7d, 0x4b, 0x20, 0xbc,
  0xce, 0xe7, 0xa1, 0xbd, 0x90, 0x3a, 0xcf, 0x3d, 0x88, 0xf0, 0x70, 0xbe,
  0xa3, 0x05, 0x1c, 0x3c, 0xd0, 0xd5, 0x52, 0xbd, 0x5a, 0x7a, 0x1d, 0x3e,
  0xc0, 0x43, 0x0a, 0x3e, 0x3d, 0xa9, 0x4f, 0xbe, 0xe5, 0x4c, 0x9a, 0x3e,
  0xb6, 0x76, 0x8e, 0x3e, 0xf5, 0x65, 0xb9, 0xbb, 0x12, 0x51, 0x42, 0xbe,
  0x80, 0xee, 0x72, 0xbe, 0x84, 0xb1, 0x13, 0xbe, 0xc3, 0x3a, 0xf4, 0x3d,
  0x1f, 0xa9, 0xfe, 0x3d, 0x85, 0xb1, 0x1e, 0x3e, 0x9b, 0xe6, 0x0b, 0x3e,
  0x9c, 0x72, 0x3d, 0x3e, 0xee, 0x3b, 0xe8, 0x3d, 0x37, 0xb7, 0xd3, 0x3c,
  0xa2, 0x16, 0xa3, 0x3d, 0x10, 0x89, 0x57, 0x3d, 0xaf, 0xc4, 0x8b, 0xbe,
  0xbc, 0x15, 0x8f, 0x3e, 0x8e, 0x56, 0x4a, 0x3d, 0x07, 0x58, 0x62, 0x3b,
  0x64, 0x42, 0xf9, 0xbc, 0x01, 0xe8, 0x0f, 0xbe, 0xf1, 0x55, 0x86, 0xbc,
  0xbb, 0x4a, 0x12, 0xbc, 0xf0, 0xab, 0x92, 0xbe, 0xa0, 0xfd, 0x85, 0x3e,
  0x21, 0x5e, 0xe3, 0x3a, 0x89, 0x96, 0x9e, 0x3c, 0x13, 0x12, 0x93, 0xbe,
  0x3d, 0xfb, 0xb3, 0xbd, 0xcb, 0xcb, 0x1f, 0x3e, 0xd7, 0xcf, 0xa0, 0x3b,
  0x42, 0x8c, 0xcc, 0xbd, 0xbd, 0x39, 0x88, 0xbd, 0xb7, 0x97, 0xf5, 0xbe,
  0xd3, 0x24, 0x05, 0x3e, 0xbc, 0x93, 0x2e, 0x3d, 0xda, 0x92, 0x82, 0xbe,
  0xc4, 0x7f, 0xfe, 0xbe, 0x3e, 0x33, 0x65, 0xbd, 0x77, 0x92, 0x4a, 0xbe,
  0x47, 0x9c, 0xdb, 0xbd, 0x3b, 0x35, 0x77, 0x3d, 0x56, 0x8a, 0x02, 0xbf,
  0x6c, 0x23, 0x45, 0x3e, 0x9d, 0xd1, 0x0a, 0xbd, 0x5a, 0x95, 0x04, 0x3e,
  0xcd, 0xbe, 0xce, 0xbe, 0x75, 0xd3, 0x8b, 0xbd, 0x5e, 0x4c, 0x2b, 0xbe,
  0xd9, 0x51, 0x6f, 0xbe, 0xd9, 0x34, 0x7c, 0x3d, 0x4f, 0x23, 0x97, 0xbd,
  0xeb, 0x03, 0xeb, 0x3c, 0x0a, 0xee, 0x2d, 0xbe, 0x6e, 0x5b, 0x4b, 0x3d,
  0xd0, 0xea, 0x1f, 0xbe, 0x53, 0x1b, 0xe8, 0x3d, 0x4c, 0x79, 0xe9, 0x3e,
  0xb9, 0x44, 0x5e, 0xbe, 0x3f, 0xae, 0x52, 0xbe, 0x4c, 0xf3, 0xa3, 0x3d,
  0x06, 0x88, 0x0a, 0x3e, 0x15, 0xff, 0x8a, 0xbd, 0xd6, 0xe9, 0x34, 0x3e,
  0x7d, 0xe2, 0x94, 0x3d, 0x40, 0x02, 0x18, 0xbe, 0x30, 0x50, 0x58, 0x3e,
  0x5e, 0xa4, 0xce, 0x3d, 0x55, 0x20, 0x96, 0x3e, 0xcf, 0x23, 0x0e, 0xbe,
  0xa9, 0x45, 0x0c, 0x3e, 0xe0, 0x39, 0xed, 0xbd, 0xb0, 0x15, 0x9d, 0x3e,
  0x4e, 0xd8, 0xfc, 0x3e, 0x2d, 0x77, 0x33, 0xbe, 0xf7, 0x92, 0x23, 0xbe,
  0xc1, 0x34, 0x07, 0x3d, 0x03, 0x74, 0x9d, 0x3e, 0xef, 0x86, 0x82, 0xbd,
  0xd3, 0x4c, 0x2c, 0x3e, 0xd7, 0x86, 0x73, 0x3e, 0x7a, 0x4a, 0x8a, 0x3d,
  0x80, 0x59, 0x8b, 0x3e, 0xd0, 0xf3, 0xd2, 0x3d, 0x38, 0xd3, 0x39, 0x3d,
  0x5b, 0x00, 0x8b, 0x3d, 0xa8, 0x8c, 0xe6, 0x3d, 0x2f, 0xbb, 0x2a, 0x3e,
  0xdb, 0x26, 0xcc, 0x3d, 0xf0, 0xfc, 0x08, 0x3f, 0x0c, 0xf7, 0x18, 0xbe,
  0xf0, 0x6b, 0x13, 0xbe, 0x5a, 0x6f, 0x9d, 0x3d, 0x8c, 0x16, 0x3d, 0x3e,
  0x2b, 0x52, 0xa7, 0xbd, 0x57, 0xbd, 0xa5, 0x3c, 0x77, 0xd7, 0x90, 0x3e,
  0xc0, 0xce, 0x3f, 0xbe, 0x40, 0xa8, 0x5c, 0x3e, 0xf7, 0xbf, 0x6d, 0x3c,
  0xc8, 0xf4, 0x93, 0xbb, 0xef, 0x7a, 0xb0, 0x3c, 0x44, 0x23, 0xd3, 0x3d,
  0x18, 0x89, 0x89, 0xbe, 0x6a, 0x18, 0xa5, 0x3e, 0x1f, 0x63, 0x9c, 0x3e,
  0xf3, 0xe9, 0x2a, 0xbd, 0xea, 0x0b, 0xe1, 0xbe, 0x01, 0xb3, 0xa4, 0x3d,
  0x7c, 0x0f, 0x1d, 0x3e, 0xff, 0x06, 0x38, 0xbe, 0x96, 0x5b, 0x8a, 0x3d,
  0x55, 0xa6, 0x41, 0xbe, 0x2c, 0x18, 0x89, 0xbe, 0x6e, 0x32, 0x71, 0x3d,
  0xb5, 0xe3, 0xac, 0x3c, 0xf7, 0x1a, 0x23, 0x3e, 0xa7, 0x89, 0x0b, 0xbd,
  0x74, 0x50, 0xe2, 0x3d, 0x9a, 0x7e, 0xcd, 0xbe, 0x5f, 0x92, 0x7c, 0xbe,
  0x54, 0xa1, 0xf6, 0x3d, 0x28, 0x1e, 0xc4, 0xbe, 0x65, 0xa0, 0x28, 0xbf,
  0x3c, 0x17, 0x08, 0x3d, 0x81, 0xe2, 0x39, 0xba, 0xc2, 0xa7, 0x2b, 0xbe,
  0x5d, 0x85, 0x8d, 0x3c, 0x6d, 0xe3, 0xba, 0xbd, 0xe5, 0x29, 0x9a, 0xbe,
  0x0b, 0xca, 0xd0, 0x3a, 0xf0, 0xa3, 0xaf, 0xbd, 0x7a, 0x6e, 0xac, 0xbe,
  0xd6, 0xa7, 0x3a, 0xbd, 0xcc, 0x20, 0x82, 0x3c, 0xcb, 0x3e, 0xd6, 0xbe,
  0x59, 0x1d, 0x33, 0x3d, 0x71, 0x84, 0xe6, 0xbd, 0x2a, 0xc4, 0x47, 0xbe,
  0x54, 0x0f, 0xaa, 0xbe, 0x36, 0x6f, 0x1e, 0xbd, 0xfc, 0x1a, 0xe0, 0x3c,
  0xb1, 0x1a, 0xdd, 0xbd, 0x78, 0x43, 0x3d, 0xbe, 0x1a, 0x5e, 0x15, 0xbe,
  0xed, 0xe8, 0x1d, 0xbe, 0x99, 0x00, 0xf2, 0x3d, 0xe5, 0xa0, 0xc8, 0x3d,
  0xa5, 0x0a, 0xdf, 0x3c, 0x8e, 0x19, 0xb7, 0xbd, 0x8e, 0xd5, 0xa3, 0xbd,
  0xcb, 0xb1, 0x84, 0x3d, 0xc0, 0xd0, 0x05, 0xbe, 0xf8, 0x64, 0x1d, 0xbe,
  0x5c, 0x96, 0x2d, 0xbe, 0xd2, 0x13, 0xe3, 0xbc, 0x61, 0x70, 0x19, 0xbe,
  0x4b, 0x65, 0x61, 0x3e, 0x52, 0xba, 0x57, 0xbd, 0x26, 0xa1, 0xc6, 0x3c,
  0x0b, 0xd4, 0xd6, 0x3d, 0x84, 0xc2, 0x0a, 0xbe, 0x0f, 0x98, 0x3a, 0xbe,
  0xd9, 0x94, 0x0c, 0x3d, 0x07, 0xc5, 0xb0, 0xbd, 0x02, 0xd9, 0x13, 0x3e,
  0x63, 0x18, 0x8b, 0x3d, 0x5f, 0x40, 0x46, 0xbe, 0xce, 0xca, 0x95, 0x3c,
  0x23, 0x7b, 0xd4, 0x3c, 0x66, 0xfc, 0x0a, 0x3d, 0x95, 0xc9, 0xcf, 0xbd,
  0xde, 0x6d, 0x2f, 0xbd, 0x53, 0xd5, 0xe7, 0xbd, 0x3b, 0x2e, 0x77, 0x3c,
  0x05, 0xae, 0xaf, 0xbd, 0x9a, 0x38, 0xf7, 0xbd, 0x61, 0x00, 0x17, 0x3d,
  0xb9, 0x06, 0x3b, 0xbc, 0x9c, 0x48, 0xc7, 0x3c, 0x0d, 0x23, 0x8c, 0x3c,
  0xa9, 0xf8, 0x0b, 0x3e, 0xe0, 0xf4, 0x8b, 0xbd, 0x70, 0x01, 0x85, 0xbc,
  0xc9, 0xbc, 0x02, 0x3e, 0xdc, 0x3a, 0xe9, 0x3d, 0x22, 0xe5, 0xe6, 0x3c,
  0xe1, 0x95, 0x87, 0xbe, 0xe0, 0xb6, 0xac, 0x3d, 0xc2, 0xaa, 0x9d, 0xbd,
  0x96, 0xfd, 0x83, 0xbe, 0x3c, 0x40, 0xb0, 0x3d, 0x88, 0x5b, 0x2a, 0xbe,
  0x9b, 0x98, 0x6f, 0xbd, 0x24, 0x5a, 0x12, 0xbe, 0x14, 0xc5, 0x06, 0x3e,
  0x7f, 0xf5, 0x6d, 0x3e, 0x16, 0x9f, 0x4b, 0xbe, 0x07, 0x4c, 0xdf, 0xbc,
  0x77, 0xde, 0x3e, 0xbc, 0x20, 0xa7, 0xd0, 0x3d, 0x89, 0xcd, 0x90, 0x3d,
  0x82, 0x50, 0xbd, 0x3d, 0x6b, 0x0f, 0x00, 0xbe, 0xd9, 0xed, 0xc1, 0xbc,
  0x3d, 0xd4, 0x13, 0xbe, 0x56, 0x53, 0x8c, 0xbe, 0xfe, 0x6a, 0xde, 0x3d,
  0x0e, 0x3d, 0x03, 0xbe, 0xd4, 0xef, 0x2c, 0xbe, 0x3a, 0xcb, 0x34, 0xbd,
  0xc2, 0xce, 0x48, 0xbe, 0x76, 0xcd, 0xa5, 0x3d, 0x40, 0x7d, 0xbb, 0x3d,
  0xbc, 0x98, 0x38, 0xbe, 0xb1, 0xa6, 0x5e, 0x3d, 0x5b, 0x6b, 0x62, 0xbe,
  0xef, 0xaa, 0x96, 0xbc, 0x21, 0x73, 0x04, 0xbd, 0x0b, 0xd4, 0x09, 0xbe,
  0xcc, 0x79, 0xa6, 0x3d, 0x5e, 0xcc, 0xb0, 0x3d, 0xba, 0x44, 0x35, 0xbe,
  0x92, 0x4e, 0x99, 0x3d, 0x04, 0x2b, 0x8c, 0xbe, 0x16, 0xa5, 0x30, 0xbe,
  0xbf, 0xf2, 0x99, 0xbe, 0x89, 0xfd, 0x60, 0x3d, 0x6b, 0xe9, 0x13, 0xbd,
  0x37, 0x33, 0x81, 0xbe, 0xe4, 0x42, 0x29, 0xbd, 0xfd, 0x00, 0xf0, 0xbd,
  0x38, 0xb8, 0x02, 0xbc, 0xb4, 0xd9, 0x37, 0xbe, 0x20, 0xef, 0x66, 0x3b,
  0x18, 0xee, 0x0a, 0xbe, 0x5e, 0xca, 0x4a, 0x3d, 0x0d, 0x31, 0x30, 0x3e,
  0x33, 0x25, 0x76, 0xbe, 0x10, 0xae, 0x70, 0x3d, 0x87, 0x7e, 0x3b, 0xbe,
  0x64, 0xed, 0x10, 0xbd, 0x66, 0xc5, 0x00, 0xbe, 0x88, 0xb4, 0x1b, 0xbe,
  0x08, 0xfb, 0x6a, 0xbe, 0x90, 0x12, 0x66, 0xbe, 0x21, 0x71, 0xb5, 0xbd,
  0xd6, 0x14, 0x64, 0xbe, 0xd1, 0xef, 0x3f, 0xb8, 0x2a, 0xf8, 0x0a, 0x3d,
  0xac, 0x8a, 0xde, 0xbc, 0x8a, 0x9b, 0x0f, 0xbd, 0x2a, 0x6c, 0x40, 0xbd,
  0x31, 0xaa, 0x72, 0xbb, 0xba, 0xc4, 0x95, 0xbe, 0x64, 0xe8, 0xd4, 0x3d,
  0x66, 0x57, 0x28, 0xbe, 0x61, 0xce, 0xee, 0x3e, 0xfa, 0x5c, 0xa9, 0xbe,
  0x50, 0x2f, 0xe5, 0x3c, 0x7b, 0xc9, 0x30, 0x3d, 0xc3, 0x01, 0xce, 0x3e,
  0xd6, 0xa3, 0x87, 0xbe, 0x52, 0x05, 0x66, 0xbe, 0xc2, 0x95, 0x51, 0xbd,
  0x33, 0x16, 0xe4, 0xbe, 0xbb, 0xcf, 0xce, 0x3d, 0x89, 0x07, 0x43, 0xbe,
  0x0a, 0x51, 0xec, 0xbc, 0xf6, 0xad, 0x55, 0xbe, 0xa3, 0x68, 0x1c, 0xbe,
  0x8d, 0xac, 0x80, 0xbd, 0x70, 0xc0, 0xbe, 0xbe, 0x35, 0x70, 0x61, 0x3e,
  0x75, 0x53, 0xb9, 0x3c, 0xfb, 0xb3, 0xea, 0x3e, 0x2b, 0x65, 0x72, 0xbe,
  0x22, 0x39, 0xc0, 0x3e, 0x0c, 0xe4, 0x48, 0xbd, 0x2f, 0xed, 0x52, 0x3e,
  0x53, 0xac, 0x57, 0xbe, 0x1b, 0x97, 0x8d, 0xbd, 0xa0, 0xfd, 0x02, 0x3d,
  0xb5, 0xb7, 0x28, 0xbd, 0xae, 0x79, 0x4d, 0xbd, 0xdf, 0x9d, 0xd2, 0xbe,
  0x7c, 0xf0, 0xbc, 0xbd, 0x02, 0x80, 0x87, 0xbd, 0x74, 0x43, 0xe5, 0xbd,
  0x12, 0x32, 0x09, 0x3f, 0x7a, 0xe6, 0xec, 0xbd, 0x49, 0x93, 0x8e, 0x3e,
  0x79, 0x8a, 0x78, 0xbe, 0x56, 0xde, 0x05, 0x3e, 0xc5, 0x2d, 0x3a, 0x3d,
  0xf6, 0xa8, 0xb0, 0x3e, 0xf6, 0x65, 0x9c, 0x3d, 0x20, 0x48, 0x82, 0x3d,
  0x97, 0x2a, 0x16, 0x3e, 0x60, 0x87, 0xc1, 0x3d, 0xd7, 0x70, 0xe2, 0xbc,
  0x64, 0x26, 0xb0, 0xbe, 0x13, 0x2f, 0xd8, 0xbb, 0x4b, 0xfc, 0x94, 0xbd,
  0xa1, 0xa1, 0x9b, 0x3d, 0x00, 0xdc, 0xf0, 0x3e, 0x21, 0x62, 0xcb, 0xbd,
  0xdc, 0x96, 0x70, 0x3e, 0x08, 0x58, 0xfb, 0xbd, 0x87, 0x78, 0x30, 0x3e,
  0x83, 0xbc, 0x03, 0x3d, 0xf9, 0xf4, 0xcb, 0x3e, 0x2a, 0xea, 0xd6, 0xbd,
  0x51, 0x98, 0x2a, 0xbe, 0x2a, 0x27, 0x77, 0x3e, 0xcd, 0x95, 0x4d, 0x3e,
  0xb6, 0x68, 0xf2, 0x3c, 0x60, 0xe6, 0xb0, 0xbe, 0xb0, 0xe0, 0x11, 0xbd,
  0x6c, 0xc5, 0x3a, 0xbc, 0x60, 0xa7, 0x1f, 0x3d, 0x09, 0xbf, 0xaf, 0x3e,
  0xd8, 0x14, 0x53, 0xbe, 0x47, 0xff, 0x5c, 0x3e, 0xef, 0x5b, 0x14, 0xbe,
  0x21, 0xff, 0x89, 0x3e, 0xf3, 0x44, 0x64, 0xbd, 0x0e, 0xe1, 0x07, 0xbe,
  0xbc, 0x70, 0x36, 0x3e, 0xdd, 0x8f, 0xc8, 0xbe, 0x9a, 0x10, 0x4d, 0x3e,
  0x1f, 0xee, 0x02, 0x3e, 0x3a, 0x06, 0x5b, 0xbb, 0xf8, 0x27, 0x85, 0xbe,
  0xac, 0x16, 0xb5, 0xbc, 0xf9, 0x1e, 0x0a, 0xbd, 0x45, 0xfa, 0x24, 0xbd,
  0x0f, 0xed, 0x87, 0x3e, 0x97, 0xf7, 0x18, 0xbe, 0xa6, 0x9e, 0x87, 0x3e,
  0x95, 0x5f, 0xa9, 0x3d, 0x4f, 0x9a, 0x96, 0x3e, 0x07, 0x7f, 0x67, 0xbe,
  0x98, 0x40, 0xb6, 0x3c, 0xdc, 0x27, 0x33, 0xbd, 0x52, 0xd4, 0xf1, 0xbe,
  0x83, 0x56, 0x3c, 0x3e, 0xf7, 0xcc, 0x48, 0x3e, 0x71, 0x2e, 0xc0, 0xbc,
  0x6e, 0x87, 0x30, 0xbe, 0x5f, 0xf4, 0x79, 0x3c, 0xa5, 0x89, 0x23, 0x3d,
  0x02, 0xa7, 0x95, 0xbe, 0x8f, 0x9a, 0x72, 0x3e, 0x23, 0x39, 0x31, 0x3d,
  0xa5, 0x53, 0x95, 0x3c, 0x54, 0x92, 0x98, 0x3e, 0x22, 0x22, 0x02, 0x3c,
  0x7e, 0x06, 0xdc, 0x3d, 0x37, 0xe2, 0x08, 0xbd, 0xe3, 0xf3, 0x44, 0xbe,
  0x13, 0xa6, 0x67, 0x3d, 0x13, 0x09, 0x38, 0x3d, 0xca, 0xab, 0x15, 0x3e,
  0x32, 0x0c, 0x8e, 0x3a, 0x89, 0xea, 0xac, 0xbd, 0x35, 0xb4, 0xc6, 0xbd,
  0x0a, 0xfa, 0xe4, 0x3d, 0x57, 0xef, 0x3f, 0xbe, 0xc2, 0xf8, 0x4b, 0xbe,
  0xa1, 0xef, 0x7a, 0xbe, 0x20, 0x95, 0xb4, 0xbd, 0x48, 0xfd, 0xae, 0xbc,
  0x37, 0x89, 0xca, 0xbe, 0x90, 0x27, 0xbb, 0xbe, 0xcf, 0x19, 0xd6, 0xbd,
  0x54, 0x2e, 0xf5, 0xbe, 0xf2, 0x0c, 0x0d, 0xbe, 0x7e, 0xff, 0x84, 0xbe,
  0x14, 0x6c, 0xb4, 0x3c, 0xc0, 0x85, 0xf7, 0xbd, 0xa9, 0x87, 0x7a, 0xbd,
  0xe5, 0x89, 0xcb, 0xbd, 0x53, 0x85, 0x08, 0xbf, 0xe8, 0x29, 0x57, 0xbe,
  0xbb, 0x85, 0x83, 0xbe, 0x4f, 0x3b, 0x8c, 0xbe, 0xa2, 0x53, 0x13, 0xbd,
  0x9a, 0x28, 0xb1, 0xbd, 0x92, 0x6e, 0xa8, 0xbe, 0xb2, 0x8b, 0xe3, 0xbe,
  0xb8, 0x8e, 0x7d, 0xbe, 0x05, 0x45, 0x51, 0xbd, 0xd5, 0x95, 0xca, 0xbe,
  0x0b, 0x73, 0x08, 0xbe, 0x0a, 0xd8, 0xea, 0x3d, 0x69, 0xac, 0x58, 0xbc,
  0x2d, 0x5d, 0xcc, 0xbd, 0xa5, 0xb8, 0x20, 0xbe, 0x25, 0x9e, 0xb0, 0xbe,
  0x3c, 0x2e, 0xb2, 0xbe, 0xb1, 0xf3, 0x23, 0xbe, 0x0e, 0xe8, 0x96, 0xbe,
  0xc3, 0x97, 0x48, 0xbe, 0xc4, 0x7a, 0x32, 0xbe, 0xee, 0x0b, 0x44, 0xbe,
  0x57, 0x5f, 0xc7, 0xbe, 0xc9, 0x3e, 0x33, 0xbe, 0xf9, 0xec, 0x0b, 0x3e,
  0x8c, 0x5b, 0x03, 0xbf, 0xe7, 0xb2, 0x0f, 0xbe, 0x2f, 0xb9, 0x76, 0x3a,
  0x6a, 0x00, 0xd0, 0xbc, 0xd3, 0xfc, 0x52, 0xbe, 0x01, 0xc0, 0x15, 0xbe,
  0xad, 0xbb, 0xc7, 0xbe, 0x18, 0x49, 0x20, 0xbe, 0xbc, 0x23, 0x6a, 0x3e,
  0xe8, 0xf0, 0x17, 0xbf, 0x29, 0x30, 0x02, 0x3d, 0x8d, 0x2c, 0x46, 0x3b,
  0x9f, 0xb0, 0x09, 0xbf, 0xa5, 0x47, 0x0c, 0xbf, 0xe9, 0x69, 0xc0, 0xbe,
  0x29, 0x49, 0x4a, 0xbe, 0xe5, 0x90, 0x19, 0xbf, 0xf3, 0x53, 0x87, 0xbe,
  0x24, 0x7d, 0xb1, 0xbd, 0x44, 0x41, 0x9a, 0xbd, 0xc1, 0x2d, 0x2e, 0xbe,
  0x38, 0x41, 0xe7, 0xbd, 0xd9, 0x3d, 0x55, 0xbf, 0x03, 0x0e, 0x59, 0xbe,
  0x72, 0x4e, 0xbb, 0x3e, 0xee, 0xde, 0x7b, 0xbe, 0x84, 0xf5, 0x11, 0xbe,
  0x97, 0x67, 0x45, 0xbe, 0x88, 0x25, 0x0f, 0xbf, 0xcd, 0x65, 0x2c, 0x3d,
  0xe4, 0x8b, 0xde, 0x3d, 0xad, 0x98, 0x90, 0xbd, 0xb7, 0x8e, 0xd3, 0x3e,
  0xaf, 0xdf, 0xc0, 0x3d, 0x12, 0xfe, 0x9a, 0xbd, 0x9d, 0x31, 0x42, 0xbd,
  0x6a, 0x68, 0x84, 0xbc, 0x8f, 0xe4, 0x8e, 0xbd, 0x47, 0x02, 0x98, 0xbe,
  0x31, 0xf6, 0xcf, 0x3e, 0x03, 0x80, 0x3a, 0x3e, 0x02, 0x9a, 0x30, 0xbe,
  0x63, 0x38, 0x96, 0xbe, 0x9d, 0x5b, 0xfd, 0xbd, 0x36, 0x10, 0xbe, 0xbe,
  0xd2, 0x40, 0x85, 0x3d, 0x62, 0x5b, 0x5b, 0x3e, 0x92, 0x7b, 0xf4, 0x3e,
  0x2c, 0x02, 0x95, 0x3e, 0xac, 0x41, 0x8a, 0x3d, 0x07, 0xf9, 0xbc, 0xbd,
  0xdb, 0xa9, 0xa9, 0xbb, 0x73, 0x70, 0x19, 0x3e, 0xa9, 0x75, 0x35, 0xbc,
  0xff, 0x69, 0xec, 0xbe, 0x5b, 0x07, 0xc8, 0x3e, 0x8b, 0xfd, 0xb0, 0x3d,
  0x39, 0x64, 0x40, 0x3d, 0xa0, 0x16, 0x1e, 0xbe, 0x65, 0xad, 0x43, 0x3d,
  0x5c, 0xc2, 0x7d, 0xbd, 0x5f, 0x08, 0x87, 0x3e, 0x57, 0x45, 0x85, 0x3e,
  0x60, 0x74, 0x2b, 0x3e, 0x2d, 0x6e, 0x25, 0x3e, 0x5b, 0x02, 0x45, 0xbd,
  0xd6, 0x8a, 0x25, 0xbd, 0x96, 0xee, 0x3d, 0x3c, 0x6f, 0x6d, 0x6d, 0x3e,
  0x12, 0x14, 0x89, 0x3e, 0x7b, 0x7d, 0xb6, 0xbc, 0x55, 0xae, 0xc6, 0xbc,
  0xc3, 0xdb, 0x06, 0xbe, 0x9d, 0xee, 0x42, 0xbe, 0x9c, 0x2b, 0x04, 0x3e,
  0xfa, 0x7a, 0x49, 0xbc, 0x93, 0x54, 0x0f, 0xbe, 0xe8, 0xd4, 0x2e, 0xbe,
  0xab, 0x0d, 0x0a, 0xbe, 0x64, 0x30, 0x98, 0xbe, 0xcd, 0x57, 0xfc, 0x3d,
  0xda, 0x25, 0x4a, 0x3d, 0x8e, 0x02, 0x37, 0xbd, 0xd1, 0xd8, 0x43, 0x3b,
  0x43, 0x04, 0xcc, 0xbd, 0x88, 0x08, 0xb4, 0xbd, 0xb5, 0x69, 0x12, 0x3d,
  0x21, 0x47, 0x92, 0xbe, 0x6e, 0x42, 0x4b, 0x3d, 0x56, 0xf3, 0xd9, 0x3d,
  0xb8, 0xde, 0x9f, 0x3d, 0x7f, 0xa9, 0x76, 0xbd, 0x5d, 0x91, 0xa1, 0x3d,
  0xba, 0xfa, 0x58, 0xbe, 0xb6, 0xc6, 0x6e, 0xbe, 0x0a, 0x92, 0x67, 0xbe,
  0xe7, 0xf5, 0x61, 0xbd, 0x3b, 0xf1, 0xfb, 0xbd, 0x80, 0xf5, 0x47, 0xbe,
  0x0f, 0xac, 0x42, 0xbe, 0x04, 0x71, 0x6e, 0xbe, 0x09, 0x42, 0x3c, 0xba,
  0xa9, 0x82, 0xe1, 0xbd, 0x0a, 0x4e, 0xbd, 0xbd, 0x7f, 0x6c, 0x21, 0xbe,
  0xb8, 0xf9, 0x65, 0xbd, 0x65, 0xab, 0x94, 0xbd, 0x95, 0x0d, 0x30, 0xbd,
  0x59, 0x63, 0x99, 0xbc, 0x32, 0x76, 0x6c, 0xbb, 0x26, 0xbe, 0x9a, 0xbd,
  0xa2, 0xfe, 0xa4, 0x3d, 0x77, 0x23, 0x45, 0xbe, 0xd8, 0x64, 0xb1, 0xbd,
  0x68, 0x16, 0x9b, 0x3c, 0x1f, 0xb2, 0xbe, 0xbd, 0x28, 0xd6, 0x22, 0xbe,
  0x49, 0x16, 0xde, 0x3c, 0x11, 0x25, 0xec, 0xbd, 0x90, 0x2d, 0x96, 0xbe,
  0x34, 0xa7, 0x3f, 0x3e, 0xdb, 0x57, 0x13, 0xbe, 0xca, 0x01, 0xe0, 0x3d,
  0x22, 0x27, 0x54, 0x3d, 0xd1, 0xd0, 0x1c, 0xbe, 0x3a, 0xf5, 0x85, 0xbe,
  0x2d, 0xf9, 0x87, 0x3d, 0x41, 0xd9, 0x21, 0xbe, 0xe6, 0xb4, 0x54, 0x3d,
  0xaa, 0x6c, 0x3a, 0x3d, 0x0e, 0xd1, 0x11, 0x3e, 0xa1, 0xc9, 0x86, 0xbe,
  0x33, 0x70, 0xdd, 0x3d, 0xf1, 0xe3, 0x71, 0xbe, 0x8b, 0x91, 0x75, 0xbc,
  0x5d, 0x62, 0x85, 0x3d, 0x7d, 0xe1, 0xb7, 0xbd, 0x10, 0x80, 0x2b, 0xbe,
  0x86, 0xe7, 0xe5, 0x3d, 0x2d, 0xbd, 0x78, 0xbe, 0xbe, 0xa6, 0xa1, 0x3d,
  0xd5, 0xcf, 0xa1, 0x3d, 0x72, 0xc0, 0x4a, 0xbe, 0x9a, 0x89, 0xcf, 0xbd,
  0x69, 0x9f, 0x82, 0x3d, 0x53, 0x36, 0x78, 0xbe, 0x6b, 0x54, 0x86, 0xbd,
  0xb1, 0x81, 0x8a, 0xbe, 0x48, 0x82, 0xd2, 0xbc, 0xaa, 0xfc, 0x3d, 0xbe,
  0xc9, 0x5b, 0xab, 0xbd, 0xcc, 0x59, 0xde, 0x3c, 0x7c, 0x03, 0x14, 0xbe,
  0x17, 0x20, 0x73, 0x3d, 0xb2, 0x7e, 0xc1, 0xbc, 0x81, 0x4c, 0x4e, 0x3d,
  0x4f, 0x78, 0x47, 0xbe, 0x25, 0xa4, 0x2b, 0xbd, 0x38, 0x87, 0x5b, 0x3d,
  0x91, 0x12, 0xbd, 0xbd, 0xff, 0x9a, 0x0a, 0x3e, 0x3a, 0x07, 0x43, 0xbe,
  0xb9, 0x85, 0x28, 0xbe, 0xe0, 0x0e, 0x8c, 0xbe, 0x2b, 0xe2, 0x44, 0xbe,
  0x25, 0x29, 0x59, 0xbe, 0x72, 0xa4, 0x10, 0x3e, 0xd4, 0x01, 0xfd, 0xbc,
  0x47, 0xa6, 0x7d, 0xbe, 0xdb, 0x84, 0xb4, 0xbd, 0x44, 0x5a, 0xf3, 0xbd,
  0x5c, 0xe1, 0x6e, 0x3d, 0xf3, 0x99, 0x9c, 0xbd, 0x43, 0xaf, 0x68, 0xbe,
  0x75, 0x90, 0x48, 0xbe, 0x33, 0x16, 0x11, 0xbe, 0xf6, 0xbd, 0x92, 0xbd,
  0x9a, 0x7f, 0xbe, 0x3d, 0xc5, 0x27, 0x67, 0xbe, 0x07, 0x65, 0xa2, 0xbd,
  0xdd, 0x31, 0x76, 0x3d, 0xb2, 0x52, 0x07, 0x3e, 0x26, 0xb1, 0xef, 0x3d,
  0x6b, 0xa6, 0x4f, 0xbe, 0x6c, 0xb7, 0x33, 0xbe, 0x87, 0xe1, 0xcd, 0xbe,
  0x0d, 0x55, 0xb9, 0xbd, 0x1c, 0x6f, 0xb7, 0xbd, 0x7a, 0xab, 0x36, 0x3e,
  0x02, 0xb9, 0x20, 0x3c, 0x13, 0xbb, 0x99, 0x3d, 0xfd, 0xf7, 0x16, 0xbf,
  0xd1, 0x43, 0xdd, 0x3d, 0xb6, 0x84, 0xfa, 0xbe, 0x3e, 0x6a, 0x95, 0x3d,
  0x24, 0xbe, 0x47, 0xbe, 0x06, 0x15, 0x9a, 0xbd, 0x29, 0xf4, 0x23, 0xbe,
  0xe7, 0x36, 0x04, 0xbf, 0x9a, 0xc5, 0x98, 0xbd, 0xea, 0x14, 0xa6, 0x3d,
  0x29, 0xaa, 0x23, 0xbe, 0x23, 0x44, 0x97, 0x3c, 0xd9, 0x92, 0xae, 0xbe,
  0x98, 0x35, 0xd1, 0x3c, 0x53, 0xcc, 0xe8, 0xbe, 0xe7, 0x63, 0x70, 0xbe,
  0xf3, 0x53, 0x29, 0x3d, 0xd8, 0xc8, 0x49, 0xbe, 0xe9, 0xbc, 0xcc, 0xbd,
  0x79, 0xc4, 0x24, 0xbe, 0x43, 0x33, 0xf4, 0xbc, 0xfd, 0x82, 0x61, 0x3d,
  0x54, 0xcb, 0x46, 0xbe, 0x5c, 0xd8, 0xea, 0xbe, 0xd7, 0x32, 0x75, 0xbe,
  0xf9, 0x4b, 0x2b, 0xbe, 0x05, 0x01, 0xa9, 0xbd, 0x0a, 0x2b, 0x00, 0xbe,
  0x50, 0xd1, 0x9a, 0xba, 0xfd, 0x5e, 0x42, 0x3c, 0xfa, 0x17, 0xf3, 0xbe,
  0x3c, 0x11, 0x5d, 0xbe, 0x61, 0xc4, 0x0e, 0xbe, 0x32, 0xe7, 0xdc, 0xbe,
  0x26, 0x36, 0x09, 0xbe, 0x06, 0x4c, 0x81, 0xbc, 0xe0, 0xf0, 0x31, 0xbd,
  0x33, 0x1d, 0x3b, 0x3d, 0xa0, 0x70, 0x5e, 0xbe, 0x0f, 0xf1, 0xa2, 0xbe,
  0x02, 0x9f, 0x83, 0xbe, 0x16, 0xd8, 0x16, 0xbe, 0x0c, 0x3f, 0x1b, 0xbf,
  0xc6, 0xe1, 0x4f, 0xbe, 0xae, 0xc3, 0x0b, 0xbe, 0x5f, 0x84, 0x68, 0xbe,
  0xa6, 0x8c, 0x0d, 0xbf, 0xe9, 0x43, 0xd2, 0xbc, 0x77, 0x63, 0xad, 0xbe,
  0x39, 0x97, 0xa2, 0xbe, 0x3e, 0xdc, 0x20, 0xbe, 0x20, 0x0f, 0x36, 0xbe,
  0xb5, 0x84, 0x52, 0xbd, 0x73, 0x50, 0xa8, 0xbd, 0x2f, 0x70, 0xd0, 0xbd,
  0x7b, 0x8d, 0x1c, 0xbf, 0xf7, 0xef, 0xd2, 0xbc, 0x3f, 0x3f, 0x9b, 0x3d,
  0x05, 0x7f, 0x93, 0xbe, 0xa8, 0xb2, 0x61, 0xbe, 0x90, 0xd0, 0x86, 0xbd,
  0x13, 0x8f, 0xcb, 0xbe, 0x15, 0x57, 0x36, 0x3e, 0x52, 0xec, 0xef, 0x3d,
  0xce, 0xf9, 0x0c, 0xbe, 0xb9, 0xae, 0xa0, 0x3d, 0x06, 0x3e, 0x7b, 0xbe,
  0x07, 0x31, 0x26, 0xbc, 0x60, 0xb2, 0xc5, 0xbd, 0xc4, 0xda, 0xcb, 0xbc,
  0xae, 0xe4, 0xde, 0xbd, 0xb0, 0xce, 0x44, 0xbe, 0x64, 0x0d, 0x8a, 0x3e,
  0xdf, 0x9f, 0x66, 0x3e, 0x18, 0x58, 0xa9, 0xbd, 0xf0, 0x9d, 0x04, 0xbe,
  0x93, 0x17, 0x71, 0xbe, 0x1b, 0x42, 0x53, 0xbe, 0xe2, 0x57, 0xd1, 0x3d,
  0xc3, 0x7d, 0xad, 0x3e, 0xa7, 0x21, 0x56, 0x3e, 0xff, 0x9d, 0x37, 0x3e,
  0xd2, 0xe9, 0x55, 0x3c, 0xe0, 0x03, 0x01, 0xbd, 0x2f, 0x8d, 0x5f, 0xbd,
  0x5c, 0x85, 0xe2, 0x3d, 0x7c, 0x83, 0xb7, 0x3d, 0xc6, 0x47, 0x6f, 0xbe,
  0x6d, 0xea, 0xa6, 0x3e, 0x78, 0x1d, 0x99, 0x3d, 0xc4, 0x74, 0xf9, 0x3c,
  0xf8, 0x4e, 0xed, 0xbd, 0x95, 0x19, 0xd9, 0xbc, 0x1e, 0x29, 0xc8, 0xbc,
  0x79, 0x84, 0x8f, 0xbc, 0x9e, 0x0d, 0x5c, 0x3e, 0x47, 0xf4, 0x9f, 0x3e,
  0x8e, 0x1d, 0xa0, 0x3e, 0xa2, 0x7a, 0xf5, 0x3c, 0xfd, 0xf2, 0x12, 0x3e,
  0xc7, 0x08, 0x44, 0x3e, 0xfd, 0xce, 0x47, 0x3e, 0xad, 0xf1, 0x8e, 0x3e,
  0xbc, 0x8b, 0x1d, 0xbe, 0x6b, 0x09, 0xe0, 0x3c, 0x32, 0x33, 0x9c, 0x3e,
  0xde, 0x58, 0x93, 0xbd, 0x9b, 0xe0, 0x68, 0x3e, 0xbe, 0xbc, 0x90, 0x3e,
  0x19, 0xbd, 0x4c, 0x3e, 0x38, 0x49, 0x8d, 0x3d, 0xf5, 0x26, 0xad, 0x3b,
  0xfa, 0xbd, 0x26, 0xbe, 0x99, 0x2b, 0xa6, 0xbe, 0x79, 0xad, 0xd6, 0x3d,
  0xc9, 0x48, 0x1c, 0xbe, 0x25, 0x4e, 0xde, 0xbc, 0xef, 0x67, 0xad, 0xbe,
  0x44, 0xf0, 0xea, 0xbd, 0x15, 0x86, 0x4a, 0x3d, 0x29, 0x3a, 0xa2, 0xbe,
  0x09, 0x86, 0x6f, 0x3e, 0xf4, 0xb5, 0xdd, 0xbc, 0x32, 0x95, 0xb2, 0x3e,
  0x31, 0x3f, 0x92, 0x3c, 0x51, 0xed, 0xb6, 0x3e, 0x97, 0xa5, 0x36, 0xbd,
  0xff, 0xcf, 0x0a, 0x3e, 0x14, 0x53, 0xdf, 0xbc, 0x09, 0x8b, 0x86, 0xbe,
  0x5f, 0xdb, 0x72, 0xbd, 0x09, 0x88, 0xbc, 0x3d, 0xb2, 0x29, 0x60, 0x3b,
  0xcd, 0x2f, 0xd3, 0xbe, 0x77, 0xae, 0xc6, 0xbd, 0xe4, 0x02, 0xa7, 0xbe,
  0xe6, 0x23, 0xc1, 0x3d, 0xc7, 0x2f, 0xec, 0x3e, 0x2f, 0x83, 0x04, 0xbe,
  0x8c, 0xa2, 0xbf, 0x3d, 0xfa, 0xbc, 0xaf, 0xbe, 0x10, 0x6f, 0xd7, 0x3d,
  0x6b, 0x3a, 0xe4, 0xbe, 0x61, 0xaa, 0xb9, 0x3e, 0x45, 0x59, 0x39, 0x3e,
  0x7c, 0x95, 0x39, 0xbe, 0xc3, 0xf7, 0xe3, 0x3d, 0xe7, 0xce, 0x94, 0x3e,
  0xa7, 0x0f, 0x9b, 0xbd, 0x91, 0x60, 0x5a, 0xbe, 0x6a, 0x02, 0x1d, 0x3d,
  0xa6, 0x4f, 0x8d, 0xbe, 0xa9, 0x9e, 0xbb, 0x3e, 0x89, 0xa3, 0x68, 0x3e,
  0x5b, 0x2a, 0x30, 0xbe, 0xb4, 0xd0, 0x92, 0x3d, 0x61, 0xc6, 0x98, 0xbd,
  0x80, 0xf5, 0x8e, 0x3e, 0x1d, 0xb6, 0xf0, 0xbd, 0xbf, 0x62, 0x98, 0x3e,
  0x30, 0xc8, 0x91, 0x3d, 0x2d, 0x22, 0x33, 0xbe, 0x91, 0xa4, 0x56, 0x3e,
  0x39, 0xb6, 0x07, 0x3e, 0xfa, 0x2d, 0x6c, 0xbd, 0xc7, 0xb8, 0xa3, 0xbe,
  0xee, 0xec, 0x83, 0x3d, 0xe2, 0x52, 0x1b, 0xbe, 0x5a, 0x95, 0x7f, 0x3e,
  0x5d, 0x9f, 0x87, 0x3e, 0x0f, 0xf7, 0x1c, 0xbe, 0x80, 0x13, 0x1a, 0x3e,
  0x55, 0x78, 0x2b, 0xbe, 0xa0, 0xce, 0x93, 0x3e, 0xe9, 0xbc, 0xa7, 0xbd,
  0x94, 0x17, 0xa5, 0xbd, 0xf4, 0x13, 0x1c, 0x3e, 0x32, 0x3e, 0x8f, 0xbe,
  0xab, 0x68, 0x59, 0x3e, 0x78, 0x3d, 0x64, 0x3d, 0x79, 0x2c, 0x66, 0xbd,
  0x0d, 0x4d, 0x8b, 0xbe, 0xdc, 0x34, 0x42, 0xbc, 0x34, 0xd6, 0x4c, 0xbd,
  0xa4, 0x27, 0x52, 0xbe, 0x14, 0xf8, 0x8d, 0x3e, 0x9f, 0xf9, 0xb1, 0xbc,
  0xc3, 0x3a, 0x52, 0x3e, 0x72, 0xc0, 0xb2, 0x3c, 0x6d, 0x03, 0xb5, 0x3e,
  0x29, 0xc3, 0xba, 0xbd, 0xeb, 0x98, 0x01, 0x3e, 0xda, 0xf4, 0xc1, 0xbd,
  0x84, 0x0f, 0x7a, 0xbe, 0x38, 0x72, 0x12, 0x3d, 0xff, 0xb5, 0x58, 0x3e,
  0x06, 0x31, 0x8f, 0xbb, 0x95, 0x79, 0x50, 0xbe, 0x4c, 0x2b, 0x14, 0x3d,
  0x73, 0x04, 0xad, 0x3c, 0x2a, 0x95, 0x19, 0xbe, 0x29, 0x37, 0x4e, 0x3e,
  0x9a, 0x07, 0x4a, 0x3e, 0x9c, 0x5b, 0x13, 0x3e, 0x49, 0xd2, 0x8e, 0x3e,
  0x5b, 0xab, 0xf1, 0x3b, 0x62, 0x47, 0x07, 0x3d, 0x14, 0xd8, 0x02, 0xbb,
  0xe7, 0x53, 0xb6, 0xbd, 0xb4, 0x43, 0x76, 0xbc, 0x9b, 0xdf, 0x9a, 0xbc,
  0x8f, 0xda, 0xd1, 0x3d, 0xdc, 0x2e, 0x07, 0x3d, 0x5d, 0x00, 0xa9, 0x3d,
  0x70, 0x0b, 0x64, 0xbd, 0x78, 0x5f, 0x7b, 0x3d, 0x6e, 0x7e, 0xfb, 0xbb,
  0x99, 0x20, 0xb1, 0x3c, 0x29, 0xfa, 0x38, 0xbe, 0xbe, 0xbd, 0x6e, 0xbe,
  0x22, 0x60, 0x1c, 0xbe, 0xa7, 0x1d, 0xed, 0x3c, 0xab, 0xc3, 0x22, 0x3e,
  0xb4, 0x50, 0x14, 0x3e, 0x49, 0x39, 0x93, 0x3e, 0x88, 0x1a, 0x93, 0x3e,
  0xb8, 0x5c, 0x49, 0x3e, 0xdd, 0x5b, 0xd6, 0xbd, 0x56, 0x10, 0x1d, 0x3e,
  0x3b, 0xc5, 0x32, 0x3e, 0xce, 0x26, 0x79, 0x3e, 0x21, 0x58, 0x9e, 0xbe,
  0x58, 0xeb, 0xbe, 0x3e, 0xb0, 0xa3, 0x6d, 0x3d, 0x3c, 0x54, 0x85, 0x3c,
  0x5b, 0x33, 0xca, 0xbd, 0x96, 0xcf, 0x33, 0xbe, 0x51, 0x53, 0x3a, 0xbe,
  0x4c, 0xb1, 0x1b, 0x3d, 0xa9, 0xa9, 0xea, 0xbd, 0x3f, 0xd5, 0xe7, 0x3e,
  0x50, 0x0f, 0x2d, 0x3e, 0xd6, 0x57, 0x0a, 0x3e, 0xf4, 0x5a, 0x52, 0xbe,
  0x12, 0x95, 0x4b, 0xbd, 0x30, 0x89, 0x84, 0xbd, 0x29, 0xf0, 0xc9, 0xbd,
  0xc9, 0xa6, 0x10, 0xbe, 0x7f, 0x41, 0x19, 0x3e, 0xe6, 0x56, 0xc5, 0xbd,
  0x57, 0x12, 0xb6, 0xbd, 0xbe, 0x00, 0x96, 0xbd, 0xef, 0xd4, 0x13, 0x3e,
  0x02, 0x0c, 0x90, 0xbd, 0xeb, 0x43, 0x66, 0xbd, 0xbb, 0x66, 0x4b, 0xbe,
  0x2f, 0xb1, 0x47, 0xbe, 0xb5, 0x11, 0x89, 0x3c, 0x95, 0x8c, 0xa0, 0xbe,
  0xde, 0xff, 0xab, 0xbd, 0x2f, 0x13, 0xc2, 0xbd, 0xc4, 0x49, 0xf3, 0xbd,
  0xe9, 0x52, 0x85, 0xbd, 0x5f, 0xfc, 0x62, 0xbd, 0xa0, 0xe1, 0x89, 0xbe,
  0x47, 0x6a, 0x33, 0xbe, 0x57, 0xcf, 0x8b, 0x3b, 0x86, 0x30, 0xa5, 0xbe,
  0xf0, 0x3e, 0xc9, 0x3d, 0xe2, 0x0e, 0xfa, 0xbe, 0x0f, 0x93, 0x01, 0xbe,
  0x29, 0x2a, 0x41, 0xbe, 0x30, 0xaa, 0xc4, 0xbe, 0xc7, 0x2a, 0x37, 0xbd,
  0x51, 0xad, 0xaf, 0xbe, 0xfa, 0xf6, 0xa0, 0xbc, 0xca, 0x74, 0xa3, 0xbd,
  0xb8, 0x5d, 0x15, 0xbe, 0xda, 0x20, 0x93, 0xbd, 0xeb, 0x0a, 0x24, 0xbd,
  0xe1, 0x80, 0xb3, 0xbe, 0xab, 0xa6, 0x45, 0xbe, 0x11, 0xaf, 0x31, 0xbe,
  0x76, 0x25, 0x1c, 0xbe, 0xa3, 0x30, 0xd4, 0xbc, 0xb2, 0xc0, 0xd3, 0xbe,
  0xd5, 0xe6, 0xab, 0xbd, 0xe3, 0xff, 0xb2, 0xbe, 0x31, 0x45, 0x07, 0xbf,
  0xe9, 0xf5, 0xc8, 0xbd, 0x45, 0x66, 0x0b, 0xbf, 0x45, 0x85, 0x1d, 0x3e,
  0xb4, 0x25, 0x7a, 0xbd, 0x14, 0x7a, 0x32, 0xbe, 0x6c, 0xd1, 0xd4, 0xbd,
  0x84, 0x37, 0x76, 0x3d, 0x3f, 0xfb, 0xa8, 0xbe, 0xe7, 0x27, 0x81, 0x3d,
  0x36, 0xd5, 0x79, 0xbd, 0x7e, 0x0d, 0xd9, 0xbd, 0x6b, 0xcd, 0x15, 0xbe,
  0x8a, 0x85, 0xdb, 0xbe, 0x58, 0xa5, 0x4c, 0xbe, 0xaa, 0x5a, 0x56, 0x3e,
  0xd9, 0x19, 0x9d, 0xbe, 0xb4, 0xe2, 0x92, 0xbd, 0x51, 0x58, 0xf3, 0xbe,
  0x87, 0xb2, 0xb3, 0x3d, 0xdc, 0x6b, 0x98, 0xbd, 0xed, 0x97, 0x8d, 0xbc,
  0xfc, 0x97, 0x48, 0x3b, 0x12, 0xcc, 0x0e, 0x3d, 0x3e, 0xf5, 0x8d, 0xbe,
  0xe5, 0x25, 0x6c, 0xbc, 0x37, 0xb6, 0xa5, 0x3d, 0xaa, 0xa9, 0x94, 0xbd,
  0x2f, 0x34, 0x45, 0x3c, 0x9f, 0xae, 0x88, 0xbc, 0xf5, 0xbc, 0xe8, 0xbc,
  0x04, 0x35, 0x33, 0x3e, 0xf5, 0x06, 0x9f, 0x3d, 0xa2, 0x1c, 0xc8, 0x3e,
  0x26, 0x43, 0x03, 0x3d, 0xf3, 0x2f, 0x2a, 0x3e, 0x9b, 0xc0, 0x74, 0xbc,
  0x61, 0x43, 0x1a, 0x3e, 0x9f, 0x7a, 0x11, 0xbc, 0xa4, 0x22, 0x7f, 0xbd,
  0xa0, 0x2c, 0x9c, 0x3d, 0xdb, 0x89, 0x44, 0xbf, 0xa8, 0x59, 0xab, 0x3d,
  0xaa, 0x83, 0xed, 0xbe, 0x19, 0xf5, 0x10, 0xbf, 0x66, 0xfc, 0x29, 0xbf,
  0x99, 0x4b, 0x4b, 0xbe, 0x5c, 0x70, 0x8c, 0xbe, 0xa4, 0x79, 0xa1, 0x3d,
  0xa6, 0x87, 0x34, 0xbe, 0x43, 0x78, 0x36, 0xbe, 0x0f, 0xd6, 0x4b, 0x3e,
  0x4c, 0x07, 0xac, 0xbc, 0xed, 0x90, 0x6c, 0x3c, 0xf1, 0xa7, 0x2c, 0xbd,
  0x0a, 0x98, 0xd1, 0xbc, 0xd2, 0xe0, 0x3d, 0xbe, 0x11, 0x94, 0x43, 0xbf,
  0x01, 0x3d, 0xc6, 0x3d, 0xac, 0x51, 0x96, 0xbe, 0x05, 0x21, 0xa4, 0xbc,
  0x72, 0xc9, 0x6a, 0xbd, 0x58, 0xe9, 0xab, 0x3d, 0x74, 0x32, 0xc7, 0xbd,
  0x41, 0x4b, 0x8a, 0x3d, 0xa4, 0xd1, 0xcf, 0x3e, 0x8e, 0x04, 0x5e, 0xbe,
  0xa3, 0x0c, 0x96, 0xbd, 0x34, 0xff, 0x79, 0x3d, 0xe7, 0x82, 0x21, 0x3e,
  0xec, 0xee, 0x46, 0x3d, 0x70, 0x89, 0x51, 0x3e, 0x81, 0xf5, 0xe4, 0xbd,
  0xf4, 0xdf, 0xf5, 0xbe, 0x4a, 0x7c, 0xe7, 0x3d, 0xf8, 0x8f, 0xb1, 0xbe,
  0x75, 0x75, 0x17, 0x3e, 0xc4, 0x30, 0xa1, 0xbe, 0x28, 0xbf, 0x0b, 0x3e,
  0x2d, 0x1b, 0x69, 0xbc, 0x0a, 0xe6, 0xbb, 0x3e, 0xbf, 0x7e, 0x2b, 0x3f,
  0xcb, 0x70, 0x15, 0xbe, 0x7a, 0x2d, 0x12, 0xbe, 0x96, 0x04, 0x83, 0x3d,
  0xa3, 0x53, 0xb8, 0x3d, 0x96, 0x65, 0x8f, 0x3c, 0xdd, 0x2b, 0xf8, 0x3d,
  0xbd, 0x45, 0xfa, 0x3d, 0x75, 0x83, 0x54, 0xbe, 0xbe, 0x4b, 0x15, 0xbd,
  0xd4, 0x8a, 0x2b, 0xbe, 0xaf, 0xd6, 0x8f, 0x3d, 0x50, 0x30, 0x06, 0xbe,
  0x01, 0xe6, 0xd0, 0x3c, 0x93, 0xa8, 0x7c, 0xbe, 0x4f, 0xa0, 0x5c, 0x3e,
  0x30, 0x86, 0xe1, 0x3e, 0xba, 0xc0, 0xc9, 0xbd, 0x9b, 0x7d, 0x1a, 0xbe,
  0xaa, 0x65, 0x35, 0x3d, 0xd5, 0xce, 0xd5, 0x3d, 0x27, 0x85, 0x9a, 0x3c,
  0x2d, 0xd1, 0x28, 0x3c, 0x03, 0x0d, 0x57, 0x3e, 0x1e, 0xf1, 0x34, 0xbf,
  0x9f, 0x2e, 0x0f, 0x3d, 0x63, 0xa2, 0xdd, 0xbe, 0x78, 0xde, 0xdc, 0x3d,
  0xc7, 0xbb, 0x6f, 0xbe, 0xce, 0x5d, 0x24, 0x3d, 0x3c, 0xa4, 0x56, 0x3d,
  0xc9, 0x42, 0x73, 0x3e, 0x69, 0x28, 0xb6, 0x3e, 0x69, 0x25, 0xbe, 0xbd,
  0xd2, 0x1e, 0x7a, 0xbe, 0x03, 0x9a, 0xa9, 0x3d, 0x93, 0xef, 0xc4, 0x3c,
  0x93, 0x01, 0x1f, 0x3d, 0x61, 0xfb, 0xf0, 0x3d, 0x84, 0xdf, 0xae, 0xbd,
  0x18, 0xaa, 0x07, 0xbf, 0x46, 0xa8, 0x91, 0x3d, 0x52, 0x5b, 0x29, 0xbc,
  0x37, 0x93, 0x16, 0x3d, 0xa4, 0x04, 0x47, 0xbe, 0x7d, 0x68, 0x9b, 0x3d,
  0xc9, 0x0f, 0xab, 0xbe, 0x64, 0xce, 0x8f, 0xbe, 0x4c, 0xe9, 0x84, 0x3d,
  0x14, 0x86, 0x7e, 0xbe, 0xfb, 0x10, 0xca, 0xbe, 0x1d, 0xb0, 0xa5, 0x3d,
  0x16, 0xc9, 0x57, 0xbd, 0x32, 0xc9, 0x0e, 0xbd, 0x8a, 0x41, 0x83, 0xbc,
  0x44, 0xf0, 0xf9, 0xbd, 0xe4, 0xec, 0x61, 0xbe, 0xf5, 0xa9, 0xe3, 0xbd,
  0x36, 0xb6, 0xea, 0xbd, 0x9e, 0xea, 0xaf, 0xbe, 0x7b, 0xcb, 0x2c, 0x3d,
  0x22, 0xf8, 0xae, 0xbd, 0x63, 0xae, 0xf9, 0xbd, 0x50, 0xec, 0xf2, 0xbd,
  0x27, 0xa4, 0xa5, 0xbe, 0xa7, 0x9a, 0x30, 0xbd, 0xda, 0x00, 0x26, 0xbe,
  0x4c, 0x20, 0x24, 0x3b, 0x16, 0x3d, 0x1c, 0xbe, 0x07, 0xb0, 0xe8, 0xbc,
  0x03, 0x5b, 0xf6, 0xbd, 0xf7, 0x17, 0x02, 0x3d, 0x67, 0x48, 0xa1, 0xbd,
  0xf0, 0x35, 0x3b, 0xbd, 0x4c, 0x9e, 0x2a, 0x3e, 0x36, 0xb2, 0xb7, 0x3d,
  0xfa, 0x20, 0x1d, 0xbe, 0xfc, 0x4f, 0x08, 0xbe, 0x82, 0x91, 0x51, 0x3d,
  0xb5, 0xf8, 0xe5, 0x3c, 0xae, 0xc8, 0x12, 0xbd, 0xfd, 0xbf, 0x4c, 0xbe,
  0x57, 0x0b, 0x04, 0xbc, 0x32, 0x04, 0xa7, 0x3d, 0xb9, 0xeb, 0xae, 0xbd,
  0xcd, 0xe9, 0xe4, 0xbd, 0xca, 0xb1, 0x69, 0xbe, 0x43, 0xfa, 0xeb, 0xbd,
  0x4a, 0xab, 0xf8, 0x3d, 0x8b, 0x42, 0x97, 0xbd, 0x69, 0xbf, 0x98, 0x3c,
  0x42, 0xb8, 0x96, 0xbb, 0xcc, 0xae, 0x47, 0x3d, 0x58, 0x1b, 0x1d, 0xbe,
  0xf2, 0xcb, 0x48, 0xbe, 0x21, 0x11, 0x57, 0x3b, 0x97, 0xa5, 0xd6, 0xbb,
  0x40, 0xd8, 0xf6, 0x3d, 0x3a, 0xd5, 0xe7, 0xbd, 0xcb, 0xec, 0x8c, 0xbe,
  0xbe, 0x54, 0xb6, 0xbd, 0xe1, 0x50, 0x1f, 0xbe, 0x95, 0xfc, 0xe5, 0x3c,
  0x33, 0xa4, 0x73, 0xbd, 0x2d, 0x1c, 0x1a, 0xbd, 0x25, 0xff, 0x41, 0x3d,
  0x44, 0xd4, 0xef, 0x3b, 0x53, 0xbc, 0x9e, 0xbd, 0x7a, 0x3d, 0x06, 0xbe,
  0x89, 0x30, 0x0e, 0xbd, 0x23, 0x88, 0x80, 0x3d, 0xf3, 0xd5, 0x6d, 0xbe,
  0xfb, 0x45, 0x37, 0x3e, 0x12, 0xc9, 0xc9, 0x3d, 0x8b, 0xf7, 0x62, 0x3d,
  0xa8, 0xd0, 0x96, 0xbd, 0xf9, 0x43, 0xf7, 0xbd, 0x82, 0x44, 0x36, 0xbe,
  0x26, 0xc3, 0x6c, 0xbd, 0xa9, 0x77, 0x71, 0xbd, 0x95, 0xe2, 0x2f, 0x3e,
  0xa3, 0x36, 0x62, 0xbd, 0xf1, 0xa1, 0xe1, 0x3d, 0x92, 0x1b, 0x13, 0xbe,
  0x7b, 0xa4, 0x69, 0xbc, 0xdd, 0x57, 0x48, 0xbc, 0x47, 0x45, 0xd4, 0x3c,
  0x4c, 0xd4, 0x8d, 0xbd, 0x4b, 0x10, 0xa8, 0x3b, 0xab, 0x18, 0x0c, 0xbe,
  0xff, 0x33, 0x10, 0xbd, 0x28, 0x32, 0x8e, 0xbe, 0x33, 0xe3, 0x8f, 0x3d,
  0xee, 0xd3, 0x4e, 0xbd, 0x19, 0xd9, 0x64, 0xbe, 0x65, 0x44, 0x24, 0x3e,
  0x35, 0x6f, 0xa0, 0xbd, 0xe1, 0x63, 0x5a, 0xbe, 0xf0, 0xd2, 0x0a, 0x3e,
  0x5a, 0xf4, 0x5a, 0x3e, 0x7e, 0x5f, 0xb0, 0xbd, 0xf4, 0xae, 0x57, 0xbe,
  0x14, 0xf6, 0x0d, 0x3d, 0x09, 0x52, 0x28, 0xbe, 0x69, 0x16, 0x28, 0xbe,
  0xb4, 0xf6, 0x8b, 0xbd, 0x37, 0x01, 0x9d, 0xba, 0x67, 0x97, 0xd9, 0xbd,
  0x38, 0x2b, 0xbe, 0x3d, 0xd7, 0xcb, 0xb1, 0xbd, 0x57, 0xb7, 0x1e, 0xbd,
  0xee, 0xd9, 0x3b, 0xbd, 0x0b, 0x13, 0xed, 0xbd, 0x27, 0xbd, 0x30, 0xbe,
  0x61, 0x36, 0x2b, 0x3e, 0x95, 0x2c, 0x7a, 0xbd, 0xb4, 0x56, 0x2a, 0xbe,
  0x70, 0xce, 0x9f, 0xbc, 0xb0, 0x60, 0x63, 0xbe, 0x5b, 0xdc, 0x7c, 0xbe,
  0x0b, 0x5e, 0x01, 0x3c, 0x42, 0x4c, 0x87, 0xbc, 0x13, 0x57, 0x17, 0x3e,
  0x37, 0xbc, 0xf2, 0xbd, 0x0f, 0x77, 0x02, 0xbe, 0xfd, 0xbb, 0x3b, 0x3e,
  0x47, 0xdb, 0x18, 0x3e, 0xfd, 0x98, 0xc1, 0x3d, 0xa7, 0x73, 0x43, 0xbe,
  0xfb, 0xc5, 0x53, 0xbe, 0x57, 0xe0, 0x99, 0xbc, 0x76, 0x0d, 0x4d, 0xbe,
  0xb5, 0x7f, 0xe1, 0xbd, 0x00, 0x1a, 0x22, 0xbe, 0x7e, 0x7f, 0x59, 0xbe,
  0x11, 0x81, 0x84, 0xbd, 0xe3, 0x13, 0x96, 0xbc, 0x21, 0xb5, 0x12, 0xbe,
  0x66, 0x2b, 0x4f, 0xbd, 0x83, 0xc2, 0x73, 0xbe, 0xec, 0xbc, 0x57, 0xbe,
  0x4e, 0x91, 0x99, 0xbd, 0x7b, 0x99, 0x99, 0x3c, 0x39, 0x9b, 0x2f, 0xbd,
  0x2b, 0x54, 0x06, 0xbe, 0x7e, 0x70, 0x5c, 0xbd, 0x92, 0x31, 0x6e, 0xbe,
  0xeb, 0xe8, 0x94, 0x3c, 0x67, 0x8c, 0xa0, 0x3c, 0x45, 0x89, 0xba, 0x3d,
  0xca, 0xe4, 0x62, 0x3e, 0x8c, 0xda, 0x85, 0x3e, 0x09, 0x62, 0x13, 0x3e,
  0x87, 0x5e, 0x4e, 0x3d, 0x14, 0x10, 0x79, 0xbe, 0xa1, 0x82, 0x31, 0x3c,
  0xa1, 0x9c, 0x2a, 0x3e, 0x34, 0xc2, 0x67, 0x3e, 0x55, 0x26, 0x94, 0xbe,
  0xea, 0x15, 0xa7, 0x3e, 0x80, 0x0d, 0x50, 0x3e, 0x50, 0x3e, 0xc9, 0x3c,
  0x1a, 0xdb, 0xaf, 0xbc, 0x50, 0x08, 0x34, 0xbe, 0xe8, 0x89, 0x1c, 0xbd,
  0x6d, 0xa1, 0x4c, 0x3d, 0x78, 0x54, 0xbe, 0xbd, 0x71, 0xc9, 0xe3, 0x3e,
  0xdd, 0x9c, 0xba, 0x3d, 0x73, 0xb2, 0x8b, 0xbd, 0xea, 0x30, 0x2d, 0xbd,
  0x08, 0xc5, 0x3e, 0xbd, 0xd3, 0xb3, 0x11, 0xbd, 0xc5, 0xd3, 0x30, 0xbd,
  0x86, 0x2b, 0x42, 0xbe, 0xb9, 0xe5, 0x1c, 0xbe, 0x79, 0xbf, 0x56, 0xbe,
  0x5f, 0x9a, 0x9a, 0xbe, 0x2c, 0x4e, 0x1e, 0xbe, 0x69, 0x3b, 0xb5, 0x3d,
  0x0a, 0xd2, 0xf3, 0xbc, 0xd6, 0x1e, 0xd5, 0xbd, 0x9a, 0x21, 0xcd, 0xbe,
  0xc7, 0x31, 0xa0, 0xbd, 0x24, 0x41, 0x10, 0xbe, 0xc9, 0xcd, 0xb9, 0xbe,
  0x08, 0x23, 0xda, 0xbe, 0x3f, 0xc7, 0x99, 0xbd, 0xd2, 0xb6, 0x6f, 0xbe,
  0x1a, 0xe4, 0x40, 0xbd, 0x8b, 0x0a, 0x03, 0xbd, 0x91, 0x38, 0xe3, 0xbe,
  0x90, 0x17, 0xa6, 0xbe, 0xe2, 0x99, 0xbe, 0xbb, 0xe7, 0xba, 0xe6, 0xbd,
  0xc7, 0x45, 0x07, 0x3e, 0x97, 0x34, 0xc2, 0xbe, 0x8f, 0xd3, 0x1e, 0xbe,
  0xb1, 0x35, 0xbd, 0xbe, 0x9a, 0x81, 0x11, 0xbe, 0xc0, 0x34, 0xd2, 0xbd,
  0xe2, 0xe7, 0x00, 0xbf, 0x02, 0x97, 0x66, 0xbe, 0x6d, 0xe4, 0x66, 0xbd,
  0x34, 0x2a, 0x59, 0xbd, 0x3a, 0xe4, 0xae, 0x3c, 0x62, 0x94, 0x91, 0xbd,
  0xa5, 0xb7, 0xd5, 0xbe, 0x5d, 0xd3, 0xc3, 0xbc, 0xa8, 0x58, 0xcf, 0x3c,
  0x0e, 0x53, 0x83, 0xbe, 0x37, 0xe5, 0xf1, 0x3c, 0x0e, 0xd0, 0x23, 0xbe,
  0xb0, 0xe7, 0xb9, 0xbd, 0x3e, 0xff, 0xad, 0x3c, 0x98, 0x68, 0xb2, 0xbe,
  0x50, 0x23, 0x73, 0xbe, 0xe3, 0x12, 0x3f, 0xbe, 0x23, 0x13, 0xc5, 0x3c,
  0x5b, 0x31, 0x4e, 0xbd, 0x38, 0x51, 0x36, 0x3c, 0x6c, 0xd1, 0x30, 0xbd,
  0xa8, 0xfb, 0x8b, 0x3d, 0xbf, 0xb8, 0x70, 0xbe, 0xa0, 0xef, 0x6a, 0xbe,
  0x3d, 0x1d, 0xb7, 0xbc, 0x01, 0x41, 0x90, 0x3c, 0xda, 0x5b, 0x9a, 0x3e,
  0x40, 0x70, 0x64, 0xbe, 0x92, 0x41, 0xd8, 0xba, 0x6e, 0x12, 0x23, 0xbe,
  0xa5, 0x9a, 0x42, 0xbd, 0x5b, 0xf6, 0x32, 0x3e, 0x9b, 0xd0, 0xee, 0xbd,
  0xc0, 0x52, 0xfb, 0xbc, 0x3f, 0xe0, 0xf0, 0xbc, 0xa1, 0xf8, 0x83, 0xbe,
  0xbf, 0x52, 0x44, 0xbc, 0x3a, 0x8d, 0xc0, 0xbd, 0xb4, 0xfc, 0x75, 0xbe,
  0x2b, 0x2f, 0x07, 0x3d, 0xbf, 0xee, 0xe2, 0x3c, 0xb4, 0xc2, 0x07, 0xbe,
  0x0b, 0x2d, 0x69, 0x3d, 0x11, 0xe8, 0xdb, 0x3a, 0x59, 0xac, 0xcc, 0xbd,
  0x10, 0xdc, 0x25, 0xbe, 0xb6, 0xee, 0xbb, 0xbd, 0xde, 0xec, 0x8e, 0xbe,
  0xa7, 0xc7, 0x91, 0x3b, 0xfe, 0xa7, 0xd2, 0xbd, 0x4e, 0xf8, 0x6f, 0xbd,
  0x68, 0x3c, 0xa6, 0xbe, 0xd4, 0x4d, 0x69, 0xbd, 0xa1, 0x4b, 0xd1, 0x3d,
  0x41, 0x94, 0x3b, 0x3d, 0x24, 0xc7, 0xd2, 0x3a, 0xfb, 0x12, 0x84, 0x3e,
  0xa0, 0x77, 0x06, 0xbe, 0xdd, 0xe3, 0x6b, 0xbe, 0xb5, 0xec, 0x9c, 0x3d,
  0xb1, 0xc7, 0x22, 0xbe, 0xad, 0xe8, 0x6a, 0xbe, 0xda, 0x7a, 0x9e, 0xbd,
  0x8a, 0xc5, 0x10, 0x3d, 0x0f, 0x09, 0x65, 0xbd, 0x7f, 0x6c, 0xf5, 0xbe,
  0x5b, 0xc9, 0x80, 0xbe, 0x5f, 0x63, 0x31, 0x3e, 0xef, 0x02, 0xad, 0xbe,
  0xfd, 0xfb, 0xb0, 0xbe, 0x36, 0xb5, 0xf7, 0xbd, 0x73, 0x4c, 0x51, 0xbe,
  0xaa, 0x34, 0x11, 0x3e, 0xae, 0x94, 0xd3, 0xbd, 0x26, 0x64, 0x37, 0x3e,
  0xd4, 0x7e, 0xab, 0x3d, 0x58, 0xe7, 0x95, 0xbe, 0xe9, 0xdd, 0x79, 0xbe,
  0xf3, 0xd2, 0x4f, 0xbe, 0x96, 0x8d, 0xbf, 0x3e, 0x7a, 0x64, 0x36, 0xbe,
  0x42, 0xda, 0x87, 0x3e, 0x4e, 0xde, 0xbe, 0xbe, 0xfd, 0xbf, 0x85, 0xbe,
  0xad, 0x83, 0x53, 0xbe, 0x2c, 0x1a, 0xa6, 0xbd, 0x49, 0xd5, 0x73, 0xbe,
  0x63, 0x8f, 0xb9, 0x3d, 0xdd, 0x41, 0xf1, 0x3c, 0xb4, 0x28, 0x95, 0x3d,
  0x62, 0xd8, 0x9d, 0xbd, 0xbb, 0x50, 0xb0, 0x3d, 0x39, 0x77, 0x48, 0xbe,
  0x68, 0x5c, 0xfb, 0xbd, 0x15, 0x4c, 0x63, 0xbe, 0xf4, 0x99, 0x61, 0x3d,
  0xef, 0x69, 0x09, 0xbb, 0x55, 0xf3, 0x9a, 0x3f, 0x13, 0x15, 0x6c, 0xbe,
  0x7a, 0xf6, 0xee, 0xbc, 0x7f, 0xa6, 0x59, 0xbe, 0x6a, 0x45, 0x32, 0xbe,
  0x21, 0x63, 0xff, 0x3c, 0x57, 0x7f, 0x87, 0x3d, 0xd0, 0xbf, 0xf2, 0x3c,
  0xf3, 0xcc, 0x36, 0xbe, 0x71, 0xf7, 0x46, 0xbd, 0x6c, 0x4d, 0xff, 0x3d,
  0xd9, 0x5f, 0x26, 0x3d, 0xe3, 0xd3, 0x68, 0xbe, 0xb8, 0x8c, 0x7a, 0xbe,
  0x16, 0x75, 0x8b, 0x3e, 0x74, 0x46, 0x41, 0xbe, 0xe4, 0x63, 0x85, 0x3f,
  0x93, 0x5a, 0xb3, 0xbe, 0x0e, 0x24, 0x61, 0x3e, 0x28, 0x6d, 0x86, 0xbe,
  0xf6, 0x31, 0xff, 0xbc, 0xd4, 0xf7, 0x0c, 0xbd, 0x00, 0xdd, 0x17, 0xbe,
  0xc9, 0x36, 0xeb, 0x3d, 0x0c, 0xcc, 0x58, 0xbe, 0x57, 0xec, 0xa6, 0xbd,
  0x9f, 0x43, 0x6a, 0xbd, 0x8e, 0x38, 0x9b, 0x3b, 0x93, 0x71, 0xdc, 0xbd,
  0x09, 0x97, 0xe8, 0xbd, 0xe5, 0x70, 0xec, 0x3d, 0xcd, 0xc5, 0x05, 0xbe,
  0xd7, 0x01, 0xf6, 0x3c, 0xa1, 0x92, 0xf5, 0xbe, 0x8f, 0x3a, 0x09, 0x3e,
  0x20, 0xee, 0x2b, 0xbd, 0xbb, 0xd8, 0x77, 0x3e, 0x27, 0xda, 0xb1, 0x3d,
  0xd5, 0x45, 0x01, 0x3e, 0x09, 0xd9, 0x22, 0x3d, 0x55, 0x48, 0x11, 0x3d,
  0x97, 0x6f, 0xd1, 0x3d, 0x5f, 0x69, 0x67, 0xbe, 0x48, 0x55, 0x14, 0xbe,
  0x8b, 0x38, 0x9c, 0xbe, 0x1b, 0x0e, 0x0a, 0xbe, 0x91, 0x46, 0xf6, 0xbc,
  0xbb, 0x61, 0x54, 0xbe, 0xa3, 0xb7, 0xb1, 0x3e, 0x4d, 0xcd, 0xfe, 0xbe,
  0x23, 0xab, 0x2c, 0xbe, 0x34, 0x9f, 0xc1, 0xbe, 0x99, 0x08, 0x21, 0x3e,
  0xa8, 0x5f, 0x82, 0xbe, 0x72, 0x83, 0x5d, 0xbe, 0xa5, 0x5e, 0x47, 0x3d,
  0x61, 0xea, 0x8e, 0xbe, 0xf9, 0x12, 0xd7, 0xbd, 0xeb, 0xc4, 0xcd, 0xbe,
  0x7f, 0x55, 0xa8, 0xbe, 0xf7, 0x71, 0x4c, 0xbd, 0xfa, 0x6f, 0xb9, 0xbe,
  0x22, 0x7b, 0xe6, 0x3e, 0x46, 0x2e, 0x1e, 0x3d, 0x46, 0xdf, 0xb5, 0xbd,
  0xab, 0x71, 0xdf, 0xbe, 0x36, 0x14, 0x90, 0x3d, 0x6f, 0xd6, 0xa2, 0xbe,
  0x3b, 0x53, 0xc8, 0x3d, 0xdb, 0x7f, 0xa4, 0xbe, 0xbc, 0xee, 0x60, 0xbc,
  0xed, 0x2d, 0x09, 0x3d, 0x05, 0xfe, 0x0b, 0x3d, 0x62, 0x1c, 0x83, 0x3d,
  0x89, 0x1c, 0x36, 0x3d, 0xc0, 0xc7, 0x3c, 0xbe, 0xc5, 0x88, 0x8c, 0xbe,
  0x94, 0x44, 0x87, 0xbe, 0xed, 0x4f, 0xec, 0xbd, 0x65, 0x7c, 0x3c, 0x3d,
  0xd7, 0x9a, 0x85, 0xbd, 0x0b, 0xd5, 0x2a, 0xbe, 0x90, 0x93, 0x49, 0xbc,
  0x83, 0xbe, 0x06, 0xbe, 0xfe, 0x72, 0x5d, 0xbe, 0x59, 0x1e, 0x84, 0x3d,
  0x3c, 0xc4, 0x1d, 0x3e, 0xac, 0x5b, 0x42, 0xbe, 0x96, 0x2c, 0x51, 0xbd,
  0x9d, 0x4c, 0x48, 0xbd, 0x7f, 0x07, 0x2b, 0x3c, 0x9f, 0x0a, 0x94, 0x3d,
  0x92, 0x32, 0x8c, 0xbe, 0xca, 0x54, 0x9e, 0x3d, 0x93, 0xb0, 0x14, 0xbd,
  0x1a, 0xe9, 0xff, 0x3d, 0x70, 0xf0, 0x0b, 0xbd, 0x48, 0x25, 0x12, 0xbd,
  0x91, 0x73, 0x20, 0x3d, 0x44, 0x06, 0x93, 0xbe, 0xde, 0x41, 0xba, 0x3d,
  0xf9, 0xe8, 0x97, 0xbd, 0x90, 0xda, 0x02, 0x3d, 0xa4, 0x8b, 0xac, 0x3c,
  0xbc, 0x9e, 0x33, 0xbc, 0xcb, 0xfd, 0xc0, 0x3d, 0x8b, 0x1c, 0x30, 0xbe,
  0xdc, 0xda, 0xb3, 0xbb, 0x55, 0x6f, 0x99, 0xbd, 0x3d, 0x13, 0xf2, 0xbd,
  0x43, 0x82, 0xb8, 0xbd, 0x22, 0x24, 0x9a, 0x3b, 0xd9, 0xbe, 0xc7, 0xbc,
  0xd4, 0xcb, 0x5f, 0xbe, 0x84, 0x17, 0x94, 0xbe, 0x62, 0xf3, 0x38, 0xbd,
  0x7d, 0xf5, 0xa9, 0x3d, 0x1f, 0x5e, 0xe4, 0x3c, 0xbb, 0xcb, 0x33, 0xbe,
  0xe6, 0x5b, 0xf8, 0x3d, 0x48, 0x33, 0x02, 0x3e, 0x38, 0x9f, 0x0e, 0xbd,
  0xba, 0x36, 0x67, 0xbe, 0x85, 0x03, 0xd8, 0xbd, 0x5e, 0x71, 0x57, 0xbe,
  0xd7, 0x19, 0x6f, 0xbe, 0x9a, 0x10, 0xf0, 0xbd, 0x53, 0xa9, 0x6e, 0xbe,
  0x9b, 0x81, 0x27, 0x3e, 0x0d, 0xff, 0x44, 0xbe, 0xdb, 0x4b, 0x4b, 0xbe,
  0xc4, 0x69, 0x82, 0xbe, 0xc6, 0xfa, 0x0d, 0xbe, 0x73, 0x62, 0xb1, 0x3d,
  0xc7, 0xc2, 0x6b, 0xbc, 0xb8, 0xdf, 0xfc, 0xbd, 0x3d, 0xf1, 0x0e, 0x3e,
  0x02, 0xad, 0xaf, 0xbd, 0x03, 0x93, 0x18, 0xbe, 0xf5, 0x51, 0x06, 0x3d,
  0x5a, 0x5f, 0x12, 0x3c, 0x1e, 0xc9, 0x4a, 0xbe, 0xe4, 0x75, 0x2f, 0xbe,
  0xaf, 0x3b, 0x6b, 0xbe, 0x2e, 0x23, 0xf1, 0x3d, 0xb3, 0x16, 0xef, 0xbb,
  0x1e, 0x7a, 0x81, 0x3d, 0x84, 0x7e, 0x0f, 0xbe, 0x90, 0x2a, 0xef, 0x3d,
  0x40, 0x02, 0x22, 0xbe, 0xbb, 0xe7, 0x7f, 0x3d, 0xd8, 0x87, 0xbc, 0x3d,
  0x9d, 0x9b, 0x9d, 0x3d, 0xbf, 0x8d, 0xa1, 0xbd, 0x16, 0x7f, 0x6a, 0xbe,
  0x11, 0x55, 0x25, 0xbe, 0xfe, 0x12, 0x77, 0x3d, 0x65, 0xe5, 0xda, 0xbd,
  0x0b, 0x2a, 0x0a, 0xbe, 0xdd, 0x3f, 0x33, 0x3b, 0x8e, 0x8e, 0x26, 0xbe,
  0x85, 0x1b, 0x46, 0xbe, 0x91, 0x52, 0xb3, 0x3d, 0x5d, 0xd5, 0x7e, 0xbe,
  0x38, 0x67, 0xaf, 0xbd, 0x6b, 0xac, 0xba, 0x3d, 0x6d, 0xba, 0xf6, 0xbc,
  0xa6, 0x16, 0x8c, 0xbe, 0x5a, 0xee, 0x0c, 0x3b, 0xfd, 0xa1, 0x64, 0xbe,
  0x42, 0x3e, 0x46, 0xbe, 0xb4, 0x19, 0x95, 0xbc, 0x71, 0xda, 0xba, 0xbd,
  0xee, 0xa0, 0x3c, 0xbd, 0xa0, 0xc0, 0x26, 0xbd, 0xd8, 0x4d, 0x42, 0xbe,
  0x4d, 0x49, 0x2d, 0xbe, 0x6d, 0xd9, 0x40, 0xbe, 0xd4, 0xca, 0x68, 0xbe,
  0x7b, 0x70, 0x90, 0x3d, 0xc7, 0x9f, 0x26, 0x3e, 0xe3, 0x31, 0x50, 0xbd,
  0x66, 0xfd, 0xff, 0xff, 0x10, 0x00, 0x00, 0x00, 0x07, 0x00, 0x00, 0x00,
  0x14, 0x00, 0x00, 0x00, 0x2c, 0x00, 0x00, 0x00, 0x02, 0x00, 0x00, 0x00,
  0x10, 0x00, 0x00, 0x00, 0x70, 0x00, 0x00, 0x00, 0x17, 0x00, 0x00, 0x00,
  0x73, 0x65, 0x71, 0x75, 0x65, 0x6e, 0x74, 0x69, 0x61, 0x6c, 0x2f, 0x64,
  0x65, 0x6e, 0x73, 0x65, 0x2f, 0x4d, 0x61, 0x74, 0x4d, 0x75, 0x6c, 0x00,
  0xd0, 0xfc, 0xff, 0xff, 0xda, 0xfd, 0xff, 0xff, 0x04, 0x00, 0x00, 0x00,
  0x08, 0x00, 0x00, 0x00, 0xff, 0xff, 0xff, 0xff, 0x70, 0x00, 0x00, 0x00,
  0x00, 0x00, 0x0e, 0x00, 0x18, 0x00, 0x08, 0x00, 0x07, 0x00, 0x0c, 0x00,
  0x10, 0x00, 0x14, 0x00, 0x0e, 0x00, 0x00, 0x00, 0x00, 0x00, 0x00, 0x02,
  0x10, 0x00, 0x00, 0x00, 0x06, 0x00, 0x00, 0x00, 0x10, 0x00, 0x00, 0x00,
  0x2c, 0x00, 0x00, 0x00, 0x01, 0x00, 0x00, 0x00, 0x02, 0x00, 0x00, 0x00,
  0x18, 0x00, 0x00, 0x00, 0x73, 0x65, 0x71, 0x75, 0x65, 0x6e, 0x74, 0x69,
  0x61, 0x6c, 0x2f, 0x66, 0x6c, 0x61, 0x74, 0x74, 0x65, 0x6e, 0x2f, 0x43,
  0x6f, 0x6e, 0x73, 0x74, 0x00, 0x00, 0x00, 0x00, 0x38, 0xfd, 0xff, 0xff,
  0x42, 0xfe, 0xff, 0xff, 0x04, 0x00, 0x00, 0x00, 0x0c, 0x00, 0x00, 0x00,
  0x6b, 0x9f, 0x63, 0xbf, 0x6d, 0xf6, 0x0e, 0xc0, 0xa7, 0xce, 0x00, 0x40,
  0x26, 0xfe, 0xff, 0xff, 0x10, 0x00, 0x00, 0x00, 0x05, 0x00, 0x00, 0x00,
  0x10, 0x00, 0x00, 0x00, 0x44, 0x00, 0x00, 0x00, 0x01, 0x00, 0x00, 0x00,
  0x03, 0x00, 0x00, 0x00, 0x32, 0x00, 0x00, 0x00, 0x73, 0x65, 0x71, 0x75,
  0x65, 0x6e, 0x74, 0x69, 0x61, 0x6c, 0x2f, 0x64, 0x65, 0x6e, 0x73, 0x65,
  0x5f, 0x31, 0x2f, 0x42, 0x69, 0x61, 0x73, 0x41, 0x64, 0x64, 0x2f, 0x52,
  0x65, 0x61, 0x64, 0x56, 0x61, 0x72, 0x69, 0x61, 0x62, 0x6c, 0x65, 0x4f,
  0x70, 0x2f, 0x72, 0x65, 0x73, 0x6f, 0x75, 0x72, 0x63, 0x65, 0x00, 0x00,
  0xa8, 0xfd, 0xff, 0xff, 0xb2, 0xfe, 0xff, 0xff, 0x04, 0x00, 0x00, 0x00,
  0x40, 0x00, 0x00, 0x00, 0xeb, 0xd9, 0xe4, 0xbd, 0x3a, 0x7d, 0xa1, 0xbe,
  0xc7, 0x37, 0x50, 0xbf, 0x98, 0xff, 0x17, 0xbf, 0x0c, 0x4c, 0x92, 0xbe,
  0x82, 0x4f, 0xa9, 0xbf, 0x0a, 0x03, 0x9d, 0xbf, 0x1b, 0xd1, 0x77, 0xbe,
  0x21, 0x6b, 0x8e, 0xbf, 0x8d, 0xdd, 0x60, 0xbf, 0x15, 0xe6, 0xce, 0xbf,
  0x27, 0xa3, 0x1b, 0x3f, 0x24, 0x41, 0x5e, 0xbe, 0xad, 0xc2, 0x9b, 0xbf,
  0x02, 0x38, 0x5d, 0x40, 0xf1, 0x4f, 0xa6, 0xbe, 0xca, 0xfe, 0xff, 0xff,
  0x10, 0x00, 0x00, 0x00, 0x04, 0x00, 0x00, 0x00, 0x10, 0x00, 0x00, 0x00,
  0x44, 0x00, 0x00, 0x00, 0x01, 0x00, 0x00, 0x00, 0x10, 0x00, 0x00, 0x00,
  0x30, 0x00, 0x00, 0x00, 0x73, 0x65, 0x71, 0x75, 0x65, 0x6e, 0x74, 0x69,
  0x61, 0x6c, 0x2f, 0x64, 0x65, 0x6e, 0x73, 0x65, 0x2f, 0x42, 0x69, 0x61,
  0x73, 0x41, 0x64, 0x64, 0x2f, 0x52, 0x65, 0x61, 0x64, 0x56, 0x61, 0x72,
  0x69, 0x61, 0x62, 0x6c, 0x65, 0x4f, 0x70, 0x2f, 0x72, 0x65, 0x73, 0x6f,
  0x75, 0x72, 0x63, 0x65, 0x00, 0x00, 0x00, 0x00, 0x4c, 0xfe, 0xff, 0xff,
  0x56, 0xff, 0xff, 0xff, 0x04, 0x00, 0x00, 0x00, 0x40, 0x00, 0x00, 0x00,
  0x76, 0x2b, 0xed, 0xbf, 0x3f, 0x32, 0xcb, 0x3f, 0xde, 0xa9, 0xa7, 0xbf,
  0xa9, 0xb8, 0xb7, 0xbf, 0x3f, 0x27, 0xf0, 0xbf, 0x79, 0x31, 0x2e, 0x3d,
  0xf3, 0xb2, 0xe4, 0xbf, 0xbb, 0xc4, 0x27, 0xc0, 0x83, 0xa1, 0xb0, 0xbe,
  0xd6, 0x09, 0xc0, 0xbf, 0x18, 0x19, 0xc1, 0x3f, 0x91, 0x11, 0x12, 0x3d,
  0x97, 0xff, 0xb5, 0x3f, 0x53, 0x1e, 0x21, 0xbf, 0xdc, 0x1c, 0xb2, 0x3a,
  0x0e, 0xbe, 0xcd, 0xbf, 0x6e, 0xff, 0xff, 0xff, 0x10, 0x00, 0x00, 0x00,
  0x03, 0x00, 0x00, 0x00, 0x10, 0x00, 0x00, 0x00, 0x48, 0x00, 0x00, 0x00,
  0x01, 0x00, 0x00, 0x00, 0x10, 0x00, 0x00, 0x00, 0x33, 0x00, 0x00, 0x00,
  0x73, 0x65, 0x71, 0x75, 0x65, 0x6e, 0x74, 0x69, 0x61, 0x6c, 0x2f, 0x63,
  0x6f, 0x6e, 0x76, 0x32, 0x64, 0x5f, 0x31, 0x2f, 0x42, 0x69, 0x61, 0x73,
  0x41, 0x64, 0x64, 0x2f, 0x52, 0x65, 0x61, 0x64, 0x56, 0x61, 0x72, 0x69,
  0x61, 0x62, 0x6c, 0x65, 0x4f, 0x70, 0x2f, 0x72, 0x65, 0x73, 0x6f, 0x75,
  0x72, 0x63, 0x65, 0x00, 0x04, 0x00, 0x06, 0x00, 0x04, 0x00, 0x00, 0x00,
  0x00, 0x00, 0x06, 0x00, 0x08, 0x00, 0x04, 0x00, 0x06, 0x00, 0x00, 0x00,
  0x04, 0x00, 0x00, 0x00, 0x20, 0x00, 0x00, 0x00, 0x10, 0x94, 0xff, 0xbf,
  0xfa, 0x2c, 0x1e, 0xbf, 0x72, 0xd2, 0x6f, 0xbe, 0x30, 0x27, 0x45, 0xc0,
  0xc3, 0x1a, 0x2e, 0xc0, 0x72, 0x58, 0x42, 0xbc, 0x3d, 0xa2, 0x48, 0xc0,
  0xf0, 0x94, 0xe5, 0xbc, 0x00, 0x00, 0x0e, 0x00, 0x14, 0x00, 0x04, 0x00,
  0x00, 0x00, 0x08, 0x00, 0x0c, 0x00, 0x10, 0x00, 0x0e, 0x00, 0x00, 0x00,
  0x10, 0x00, 0x00, 0x00, 0x02, 0x00, 0x00, 0x00, 0x10, 0x00, 0x00, 0x00,
  0x44, 0x00, 0x00, 0x00, 0x01, 0x00, 0x00, 0x00, 0x08, 0x00, 0x00, 0x00,
  0x31, 0x00, 0x00, 0x00, 0x73, 0x65, 0x71, 0x75, 0x65, 0x6e, 0x74, 0x69,
  0x61, 0x6c, 0x2f, 0x63, 0x6f, 0x6e, 0x76, 0x32, 0x64, 0x2f, 0x42, 0x69,
  0x61, 0x73, 0x41, 0x64, 0x64, 0x2f, 0x52, 0x65, 0x61, 0x64, 0x56, 0x61,
  0x72, 0x69, 0x61, 0x62, 0x6c, 0x65, 0x4f, 0x70, 0x2f, 0x72, 0x65, 0x73,
  0x6f, 0x75, 0x72, 0x63, 0x65, 0x00, 0x00, 0x00, 0x90, 0xff, 0xff, 0xff,
  0x14, 0x00, 0x18, 0x00, 0x04, 0x00, 0x00, 0x00, 0x08, 0x00, 0x0c, 0x00,
  0x10, 0x00, 0x00, 0x00, 0x00, 0x00, 0x14, 0x00, 0x14, 0x00, 0x00, 0x00,
  0x14, 0x00, 0x00, 0x00, 0x01, 0x00, 0x00, 0x00, 0x20, 0x00, 0x00, 0x00,
  0x44, 0x00, 0x00, 0x00, 0x2c, 0x00, 0x00, 0x00, 0x04, 0x00, 0x00, 0x00,
  0x01, 0x00, 0x00, 0x00, 0x40, 0x00, 0x00, 0x00, 0x03, 0x00, 0x00, 0x00,
  0x01, 0x00, 0x00, 0x00, 0x0c, 0x00, 0x00, 0x00, 0x63, 0x6f, 0x6e, 0x76,
  0x32, 0x64, 0x5f, 0x69, 0x6e, 0x70, 0x75, 0x74, 0x00, 0x00, 0x00, 0x00,
  0x04, 0x00, 0x00, 0x00, 0xff, 0xff, 0xff, 0xff, 0x40, 0x00, 0x00, 0x00,
  0x03, 0x00, 0x00, 0x00, 0x01, 0x00, 0x00, 0x00, 0xfc, 0xff, 0xff, 0xff,
  0x04, 0x00, 0x04, 0x00, 0x04, 0x00, 0x00, 0x00
};

unsigned int model_tflite_len = 13052;// Fill the int in `src/model.cc` here